memory_initialization_radix=10;
68720263170, 68720263170, 68720263170, 68720263170, 68720263170, 68720263170, 68720263170, 68720263170, 68720263170, 68720263170, 68720263170, 68720263170, 68720263170, 68720263170, 68720263170, 68720263170, 68720263170, 68720263170, 68720263170, 68720263170, 68720263170, 68720263170, 68720263170, 68720263170, 68720263170, 68720263170, 68720263170, 68720263170, 68720263170, 68720263170, 68720263170, 68720263170, 68720263170, 68720263170, 68720263170, 68720263170, 68720263170, 68720263170, 68720263170, 68720263170, 68720263170, 68720263170, 68720263170, 68720263170, 68720263170, 68720263170, 68720263170, 68720263170, 68720263170, 68720263170, 68720263170, 68720263170, 68720263170, 68720263170, 68720263170, 68720263170, 68720263170, 68720263170, 68720263170, 68720263170, 68720263170, 68720263170, 68720263170, 68720263170,68720263170, 68720263170, 68720263170, 68720263170, 68720263170, 68720263170, 68720263170, 68720263170, 68720263170, 68720263170, 68720263170, 68720263170, 68720263170, 68720263170, 68720263170, 68720263170, 68720263170, 68720263170, 68720263170, 68720263170, 68720263170, 68720263170, 68720263170, 68720263170, 68720263170, 68720263170, 68720263170, 68720263170, 68720263170, 68720263170, 68720263170, 68720263170, 68720263170, 68720263170, 68720263170, 68720263170, 68720263170, 68720263170, 68720263170, 68720263170, 68720263170, 68720263170, 68720263170, 68720263170, 68720263170, 68720263170, 68720263170, 68720263170, 68720263170, 68720263170, 68720263170, 68720263170, 68720263170, 68720263170, 68720263170, 68720263170, 68720263170, 68720263170, 68720263170, 68720263170, 68720263170, 68720263170, 68720263170, 68720263170,68720263170, 68720263170, 68720263170, 68720263170, 68720263170, 68720263170, 68720263170, 68720263170, 68720263170, 68720263170, 68720263170, 68720263170, 68720263170, 68720263170, 68720263170, 68720263170, 68720263170, 68720263170, 68720263170, 68720263170, 68720263170, 68720263170, 68720263170, 68720263170, 68720263170, 68720263170, 68720263170, 68720263170, 68720263170, 68720263170, 68720263170, 68720263170, 68720263170, 68720263170, 68720263170, 68720263170, 68720263170, 68720263170, 68720263170, 68720263170, 68720263170, 68720263170, 68720263170, 68720263170, 68720263170, 68720263170, 68720263170, 68720263170, 68720263170, 68720263170, 68720263170, 68720263170, 68720263170, 68720263170, 68720263170, 68720263170, 68720263170, 68720263170, 68720263170, 68720263170, 68720263170, 68720263170, 68720263170, 68720263170,68720263170, 68720263170, 68720263170, 68720263170, 68720263170, 68720263170, 68720263170, 68720263170, 68720263170, 68720263170, 68720263170, 68720263170, 68720263170, 68720263170, 68720263170, 68720263170, 68720263170, 68720263170, 68720263170, 68720263170, 68720263170, 68720263170, 68720263170, 68720263170, 68720263170, 68720263170, 68720263170, 68720263170, 68720263170, 68720263170, 68720263170, 68720263170, 68720263170, 68720263170, 68720263170, 68720263170, 68720263170, 68720263170, 68720263170, 68720263170, 68720263170, 68720263170, 68720263170, 68720263170, 68720263170, 68720263170, 68720263170, 68720263170, 68720263170, 68720263170, 68720263170, 68720263170, 68720263170, 68720263170, 68720263170, 68720263170, 68720263170, 68720263170, 68720263170, 68720263170, 68720263170, 68720263170, 68720263170, 68720263170,68720263170, 68720263170, 68720263170, 68720263170, 68720263170, 68720263170, 68720263170, 68720263170, 68720263170, 68720263170, 68720263170, 68720263170, 68720263170, 68720263170, 68720263170, 68720263170, 68720263170, 68720263170, 68720263170, 68720263170, 68720263170, 68720263170, 68720263170, 68720263170, 68720263170, 68720263170, 68720263170, 68720263170, 68720263170, 68720263170, 68720263170, 68720263170, 68720263170, 68720263170, 68720263170, 68720263170, 68720263170, 68720263170, 68720263170, 68720263170, 68720263170, 68720263170, 68720263170, 68720263170, 68720263170, 68720263170, 68720263170, 68720263170, 68720263170, 68720263170, 68720263170, 68720263170, 68720263170, 68720263170, 68720263170, 68720263170, 68720263170, 68720263170, 68720263170, 68720263170, 68720263170, 68720263170, 68720263170, 68720263170,68720263170, 68720263170, 68720263170, 68720263170, 68720263170, 68720263170, 68720263170, 68720263170, 68720263170, 68720263170, 68720263170, 68720263170, 68720263170, 68720263170, 68720263170, 68720263170, 68720263170, 68720263170, 68720263170, 68720263170, 68720263170, 68720263170, 68720263170, 68720263170, 68720263170, 68720263170, 68720263170, 68720263170, 68720263170, 68720263170, 68720263170, 68720263170, 68720263170, 68720263170, 68720263170, 68720263170, 68720263170, 68720263170, 68720263170, 68720263170, 68720263170, 68720263170, 68720263170, 68720263170, 68720263170, 68720263170, 68720263170, 68720263170, 68720263170, 68720263170, 68720263170, 68720263170, 68720263170, 68720263170, 68720263170, 68720263170, 68720263170, 68720263170, 68720263170, 68720263170, 68720263170, 68720263170, 68720263170, 68720263170,68720263170, 68720263170, 68720263170, 68720263170, 68720263170, 68720263170, 68720263170, 68720263170, 68720263170, 68720263170, 68720263170, 68720263170, 68720263170, 68720263170, 68720263170, 68720263170, 68720263170, 68720263170, 68720263170, 68720263170, 68720263170, 68720263170, 68720263170, 68720263170, 68720263170, 68720263170, 68720263170, 68720263170, 68720263170, 68720263170, 68720263170, 68720263170, 68720263170, 68720263170, 68720263170, 68720263170, 68720263170, 68720263170, 68720263170, 68720263170, 68720263170, 68720263170, 68720263170, 68720263170, 68720263170, 68720263170, 68720263170, 68720263170, 68720263170, 68720263170, 68720263170, 68720263170, 68720263170, 68720263170, 68720263170, 68720263170, 68720263170, 68720263170, 68720263170, 68720263170, 68720263170, 68720263170, 68720263170, 68720263170,68720263170, 68720263170, 68720263170, 68720263170, 68720263170, 68720263170, 68720263170, 68720263170, 68720263170, 68720263170, 68720263170, 68720263170, 68720263170, 68720263170, 68720263170, 68720263170, 68720263170, 68720263170, 68720263170, 68720263170, 68720263170, 68720263170, 68720263170, 68720263170, 68720263170, 68720263170, 68720263170, 68720263170, 68720263170, 68720263170, 68720263170, 68720263170, 68720263170, 68720263170, 68720263170, 68720263170, 68720263170, 68720263170, 68720263170, 68720263170, 68720263170, 68720263170, 68720263170, 68720263170, 68720263170, 68720263170, 68720263170, 68720263170, 68720263170, 68720263170, 68720263170, 68720263170, 68720263170, 68720263170, 68720263170, 68720263170, 68720263170, 68720263170, 68720263170, 68720263170, 68720263170, 68720263170, 68720263170, 68720263170,68720263170, 68720263170, 68720263170, 68720263170, 68720263170, 68720263170, 68720263170, 68720263170, 68720263170, 68720263170, 68720263170, 68720263170, 68720263170, 68720263170, 68720263170, 68720263170, 68720263170, 68720263170, 68720263170, 68720263170, 68720263170, 68720263170, 68720263170, 68720263170, 68720263170, 68720263170, 68720263170, 68720263170, 68720263170, 68720263170, 68720263170, 68720263170, 68720263170, 68720263170, 68720263170, 68720263170, 68720263170, 68720263170, 68720263170, 68720263170, 68720263170, 68720263170, 68720263170, 68720263170, 68720263170, 68720263170, 68720263170, 68720263170, 68720263170, 68720263170, 68720263170, 68720263170, 68720263170, 68720263170, 68720263170, 68720263170, 68720263170, 68720263170, 68720263170, 68720263170, 68720263170, 68720263170, 68720263170, 68720263170,68720263170, 68720263170, 68720263170, 68720263170, 68720263170, 68720263170, 68720263170, 68720263170, 68720263170, 68720263170, 68720263170, 68720263170, 68720263170, 68720263170, 68720263170, 68720263170, 68720263170, 68720263170, 68720263170, 68720263170, 68720263170, 68720263170, 68720263170, 68720263170, 68720263170, 68720263170, 68720263170, 68720263170, 68720263170, 68720263170, 68720263170, 68720263170, 68720263170, 68720263170, 68720263170, 68720263170, 68720263170, 68720263170, 68720263170, 68720263170, 68720263170, 68720263170, 68720263170, 68720263170, 68720263170, 68720263170, 68720263170, 68720263170, 68720263170, 68720263170, 68720263170, 68720263170, 68720263170, 68720263170, 68720263170, 68720263170, 68720263170, 68720263170, 68720263170, 68720263170, 68720263170, 68720263170, 68720263170, 68720263170,68720263170, 68720263170, 68720263170, 68720263170, 68720263170, 68720263170, 68720263170, 68720263170, 68720263170, 68720263170, 68720263170, 68720263170, 68720263170, 68720263170, 68720263170, 68720263170, 68720263170, 68720263170, 68720263170, 68720263170, 68720263170, 68720263170, 68720263170, 68720263170, 68720263170, 68720263170, 68720263170, 68720263170, 68720263170, 68720263170, 68720263170, 68720263170, 68720263170, 68720263170, 68720263170, 68720263170, 68720263170, 68720263170, 68720263170, 68720263170, 68720263170, 68720263170, 68720263170, 68720263170, 68720263170, 68720263170, 68720263170, 68720263170, 68720263170, 68720263170, 68720263170, 68720263170, 68720263170, 68720263170, 68720263170, 68720263170, 68720263170, 68720263170, 68720263170, 68720263170, 68720263170, 68720263170, 68720263170, 68720263170,68720263170, 68720263170, 68720263170, 68720263170, 68720263170, 68720263170, 68720263170, 68720263170, 68720263170, 68720263170, 68720263170, 68720263170, 68720263170, 68720263170, 68720263170, 68720263170, 68720263170, 68720263170, 68720263170, 68720263170, 68720263170, 68720263170, 68720263170, 68720263170, 68720263170, 68720263170, 68720263170, 68720263170, 68720263170, 68720263170, 68720263170, 68720263170, 68720263170, 68720263170, 68720263170, 68720263170, 68720263170, 68720263170, 68720263170, 68720263170, 68720263170, 68720263170, 68720263170, 68720263170, 68720263170, 68720263170, 68720263170, 68720263170, 68720263170, 68720263170, 68720263170, 68720263170, 68720263170, 68720263170, 68720263170, 68720263170, 68720263170, 68720263170, 68720263170, 68720263170, 68720263170, 68720263170, 68720263170, 68720263170,68720263170, 68720263170, 68720263170, 68720263170, 68720263170, 68720263170, 68720263170, 68720263170, 68720263170, 68720263170, 68720263170, 68720263170, 68720263170, 68720263170, 68720263170, 68720263170, 68720263170, 68720263170, 68720263170, 68720263170, 68720263170, 68720263170, 68720263170, 68720263170, 68720263170, 68720263170, 68720263170, 68720263170, 68720263170, 68720263170, 68720263170, 68720263170, 68720263170, 68720263170, 68720263170, 68720263170, 68720263170, 68720263170, 68720263170, 68720263170, 68720263170, 68720263170, 68720263170, 68720263170, 68720263170, 68720263170, 68720263170, 68720263170, 68720263170, 68720263170, 68720263170, 68720263170, 68720263170, 68720263170, 68720263170, 68720263170, 68720263170, 68720263170, 68720263170, 68720263170, 68720263170, 68720263170, 68720263170, 68720263170,68720263170, 68720263170, 68720263170, 68720263170, 68720263170, 68720263170, 68720263170, 68720263170, 68720263170, 68720263170, 68720263170, 68720263170, 68720263170, 68720263170, 68720263170, 68720263170, 68720263170, 68720263170, 68720263170, 68720263170, 68720263170, 68720263170, 68720263170, 68720263170, 68720263170, 68720263170, 68720263170, 68720263170, 68720263170, 68720263170, 68720263170, 68720263170, 68720263170, 68720263170, 68720263170, 68720263170, 68720263170, 68720263170, 68720263170, 68720263170, 68720263170, 68720263170, 68720263170, 68720263170, 68720263170, 68720263170, 68720263170, 68720263170, 68720263170, 68720263170, 68720263170, 68720263170, 68720263170, 68720263170, 68720263170, 68720263170, 68720263170, 68720263170, 68720263170, 68720263170, 68720263170, 68720263170, 68720263170, 68720263170,68720263170, 68720263170, 68720263170, 68720263170, 68720263170, 68720263170, 68720263170, 68720263170, 68720263170, 68720263170, 68720263170, 68720263170, 68720263170, 68720263170, 68720263170, 68720263170, 68720263170, 68720263170, 68720263170, 68720263170, 68720263170, 68720263170, 68720263170, 68720263170, 68720263170, 68720263170, 68720263170, 68720263170, 68720263170, 68720263170, 68720263170, 68720263170, 68720263170, 68720263170, 68720263170, 68720263170, 68720263170, 68720263170, 68720263170, 68720263170, 68720263170, 68720263170, 68720263170, 68720263170, 68720263170, 68720263170, 68720263170, 68720263170, 68720263170, 68720263170, 68720263170, 68720263170, 68720263170, 68720263170, 68720263170, 68720263170, 68720263170, 68720263170, 68720263170, 68720263170, 68720263170, 68720263170, 68720263170, 68720263170,68720263170, 68720263170, 68720263170, 68720263170, 68720263170, 68720263170, 68720263170, 68720263170, 68720263170, 68720263170, 68720263170, 68720263170, 68720263170, 68720263170, 68720263170, 68720263170, 68720263170, 68720263170, 68720263170, 68720263170, 68720263170, 68720263170, 68720263170, 68720263170, 68720263170, 68720263170, 68720263170, 68720263170, 68720263170, 68720263170, 68720263170, 68720263170, 68720263170, 68720263170, 68720263170, 68720263170, 68720263170, 68720263170, 68720263170, 68720263170, 68720263170, 68720263170, 68720263170, 68720263170, 68720263170, 68720263170, 68720263170, 68720263170, 68720263170, 68720263170, 68720263170, 68720263170, 68720263170, 68720263170, 68720263170, 68720263170, 68720263170, 68720263170, 68720263170, 68720263170, 68720263170, 68720263170, 68720263170, 68720263170,68720263170, 68720263170, 68720263170, 68720263170, 68720263170, 68720263170, 68720263170, 68720263170, 68720263170, 68720263170, 68720263170, 68720263170, 68720263170, 68720263170, 68720263170, 68720263170, 68720263170, 68720263170, 68720263170, 68720263170, 68720263170, 68720263170, 68720263170, 68720263170, 68720263170, 68720263170, 68720263170, 68720263170, 68720263170, 68720263170, 68720263170, 68720263170, 68720263170, 68720263170, 68720263170, 68720263170, 68720263170, 68720263170, 68720263170, 68720263170, 68720263170, 68720263170, 68720263170, 68720263170, 68720263170, 68720263170, 68720263170, 68720263170, 68720263170, 68720263170, 68720263170, 68720263170, 68720263170, 68720263170, 68720263170, 68720263170, 68720263170, 68720263170, 68720263170, 68720263170, 68720263170, 68720263170, 68720263170, 68720263170,68720263170, 68720263170, 68720263170, 68720263170, 68720263170, 68720263170, 68720263170, 68720263170, 68720263170, 68720263170, 68720263170, 68720263170, 68720263170, 68720263170, 68720263170, 68720263170, 68720263170, 68720263170, 68720263170, 68720263170, 68720263170, 68720263170, 68720263170, 68720263170, 68720263170, 68720263170, 68720263170, 68720263170, 68720263170, 68720263170, 68720263170, 68720263170, 68720263170, 68720263170, 68720263170, 68720263170, 68720263170, 68720263170, 68720263170, 68720263170, 68720263170, 68720263170, 68720263170, 68720263170, 68720263170, 68720263170, 68720263170, 68720263170, 68720263170, 68720263170, 68720263170, 68720263170, 68720263170, 68720263170, 68720263170, 68720263170, 68720263170, 68720263170, 68720263170, 68720263170, 68720263170, 68720263170, 68720263170, 68720263170,68720263170, 68720263170, 68720263170, 68720263170, 68720263170, 68720263170, 68720263170, 68720263170, 68720263170, 68720263170, 68720263170, 68720263170, 68720263170, 68720263170, 68720263170, 68720263170, 68720263170, 68720263170, 68720263170, 68720263170, 68720263170, 68720263170, 68720263170, 68720263170, 68720263170, 68720263170, 68720263170, 68720263170, 68720263170, 68720263170, 68720263170, 68720263170, 68720263170, 68720263170, 68720263170, 68720263170, 68720263170, 68720263170, 68720263170, 68720263170, 68720263170, 68720263170, 68720263170, 68720263170, 68720263170, 68720263170, 68720263170, 68720263170, 68720263170, 68720263170, 68720263170, 68720263170, 68720263170, 68720263170, 68720263170, 68720263170, 68720263170, 68720263170, 68720263170, 68720263170, 68720263170, 68720263170, 68720263170, 68720263170,68720263170, 68720263170, 68720263170, 68720263170, 68720263170, 68720263170, 68720263170, 68720263170, 68720263170, 68720263170, 68720263170, 68720263170, 68720263170, 68720263170, 68720263170, 68720263170, 68720263170, 68720263170, 68720263170, 68720263170, 68720263170, 68720263170, 68720263170, 68720263170, 68720263170, 68720263170, 68720263170, 68720263170, 68720263170, 68720263170, 68720263170, 68720263170, 68720263170, 68720263170, 68720263170, 68720263170, 68720263170, 68720263170, 68720263170, 68720263170, 68720263170, 68720263170, 68720263170, 68720263170, 68720263170, 68720263170, 68720263170, 68720263170, 68720263170, 68720263170, 68720263170, 68720263170, 68720263170, 68720263170, 68720263170, 68720263170, 68720263170, 68720263170, 68720263170, 68720263170, 68720263170, 68720263170, 68720263170, 68720263170,68720263170, 68720263170, 68720263170, 68720263170, 68720263170, 68720263170, 68720263170, 68720263170, 68720263170, 68720263170, 68720263170, 68720263170, 68720263170, 68720263170, 68720263170, 68720263170, 68720263170, 68720263170, 68720263170, 68720263170, 68720263170, 68720263170, 68720263170, 68720263170, 68720263170, 68720263170, 68720263170, 68720263170, 68720263170, 68720263170, 68720263170, 68720263170, 68720263170, 68720263170, 68720263170, 68720263170, 68720263170, 68720263170, 68720263170, 68720263170, 68720263170, 68720263170, 68720263170, 68720263170, 68720263170, 68720263170, 68720263170, 68720263170, 68720263170, 68720263170, 68720263170, 68720263170, 68720263170, 68720263170, 68720263170, 68720263170, 68720263170, 68720263170, 68720263170, 68720263170, 68720263170, 68720263170, 68720263170, 68720263170,68720263170, 68720263170, 68720263170, 68720263170, 68720263170, 68720263170, 68720263170, 68720263170, 68720263170, 68720263170, 68720263170, 68720263170, 68720263170, 68720263170, 68720263170, 68720263170, 68720263170, 68720263170, 68720263170, 68720263170, 68720263170, 68720263170, 68720263170, 68720263170, 68720263170, 68720263170, 68720263170, 68720263170, 68720263170, 68720263170, 68720263170, 68720263170, 68720263170, 68720263170, 68720263170, 68720263170, 68720263170, 68720263170, 68720263170, 68720263170, 68720263170, 68720263170, 68720263170, 68720263170, 68720263170, 68720263170, 68720263170, 68720263170, 68720263170, 68720263170, 68720263170, 68720263170, 68720263170, 68720263170, 68720263170, 68720263170, 68720263170, 68720263170, 68720263170, 68720263170, 68720263170, 68720263170, 68720263170, 68720263170,68720263170, 68720263170, 68720263170, 68720263170, 68720263170, 68720263170, 68720263170, 68720263170, 68720263170, 68720263170, 68720263170, 68720263170, 68720263170, 68720263170, 68720263170, 68720263170, 68720263170, 68720263170, 68720263170, 68720263170, 68720263170, 68720263170, 68720263170, 68720263170, 68720263170, 68720263170, 68720263170, 68720263170, 68720263170, 68720263170, 68720263170, 68720263170, 68720263170, 68720263170, 68720263170, 68720263170, 68720263170, 68720263170, 68720263170, 68720263170, 68720263170, 68720263170, 68720263170, 68720263170, 68720263170, 68720263170, 68720263170, 68720263170, 68720263170, 68720263170, 68720263170, 68720263170, 68720263170, 68720263170, 68720263170, 68720263170, 68720263170, 68720263170, 68720263170, 68720263170, 68720263170, 68720263170, 68720263170, 68720263170,68720263170, 68720263170, 68720263170, 68720263170, 68720263170, 68720263170, 68720263170, 68720263170, 68720263170, 68720263170, 68720263170, 68720263170, 68720263170, 68720263170, 68720263170, 68720263170, 68720263170, 68720263170, 68720263170, 68720263170, 68720263170, 68720263170, 68720263170, 68720263170, 68720263170, 68720263170, 68720263170, 68720263170, 68720263170, 68720263170, 68720263170, 68720263170, 68720263170, 68720263170, 68720263170, 68720263170, 68720263170, 68720263170, 68720263170, 68720263170, 68720263170, 68720263170, 68720263170, 68720263170, 68720263170, 68720263170, 68720263170, 68720263170, 68720263170, 68720263170, 68720263170, 68720263170, 68720263170, 68720263170, 68720263170, 68720263170, 68720263170, 68720263170, 68720263170, 68720263170, 68720263170, 68720263170, 68720263170, 68720263170,68720263170, 68720263170, 68720263170, 68720263170, 68720263170, 68720263170, 68720263170, 68720263170, 68720263170, 68720263170, 68720263170, 68720263170, 68720263170, 68720263170, 68720263170, 68720263170, 68720263170, 68720263170, 68720263170, 68720263170, 68720263170, 68720263170, 68720263170, 68720263170, 68720263170, 68720263170, 68720263170, 68720263170, 68720263170, 68720263170, 68720263170, 68720263170, 68720263170, 68720263170, 68720263170, 68720263170, 68720263170, 68720263170, 68720263170, 68720263170, 68720263170, 68720263170, 68720263170, 68720263170, 68720263170, 68720263170, 68720263170, 68720263170, 68720263170, 68720263170, 68720263170, 68720263170, 68720263170, 68720263170, 68720263170, 68720263170, 68720263170, 68720263170, 68720263170, 68720263170, 68720263170, 68720263170, 68720263170, 68720263170,68720263170, 68720263170, 68720263170, 68720263170, 68720263170, 68720263170, 68720263170, 68720263170, 68720263170, 68720263170, 68720263170, 68720263170, 68720263170, 68720263170, 68720263170, 68720263170, 68720263170, 68720263170, 68720263170, 68720263170, 68720263170, 68720263170, 68720263170, 68720263170, 68720263170, 68720263170, 68720263170, 68720263170, 68720263170, 68720263170, 68720263170, 68720263170, 68720263170, 68720263170, 68720263170, 68720263170, 68720263170, 68720263170, 68720263170, 68720263170, 68720263170, 68720263170, 68720263170, 68720263170, 68720263170, 68720263170, 68720263170, 68720263170, 68720263170, 68720263170, 68720263170, 68720263170, 68720263170, 68720263170, 68720263170, 68720263170, 68720263170, 68720263170, 68720263170, 68720263170, 68720263170, 68720263170, 68720263170, 68720263170,68720263170, 68720263170, 68720263170, 68720263170, 68720263170, 68720263170, 68720263170, 68720263170, 68720263170, 68720263170, 68720263170, 68720263170, 68720263170, 68720263170, 68720263170, 68720263170, 68720263170, 68720263170, 68720263170, 68720263170, 68720263170, 68720263170, 68720263170, 68720263170, 68720263170, 68720263170, 68720263170, 68720263170, 68720263170, 68720263170, 68720263170, 68720263170, 68720263170, 68720263170, 68720263170, 68720263170, 68720263170, 68720263170, 68720263170, 68720263170, 68720263170, 68720263170, 68720263170, 68720263170, 68720263170, 68720263170, 68720263170, 68720263170, 68720263170, 68720263170, 68720263170, 68720263170, 68720263170, 68720263170, 68720263170, 68720263170, 68720263170, 68720263170, 68720263170, 68720263170, 68720263170, 68720263170, 68720263170, 68720263170,68720263170, 68720263170, 68720263170, 68720263170, 68720263170, 68720263170, 68720263170, 68720263170, 68720263170, 68720263170, 68720263170, 68720263170, 68720263170, 68720263170, 68720263170, 68720263170, 68720263170, 68720263170, 68720263170, 68720263170, 68720263170, 68720263170, 68720263170, 68720263170, 68720263170, 68720263170, 68720263170, 68720263170, 68720263170, 68720263170, 68720263170, 68720263170, 68720263170, 68720263170, 68720263170, 68720263170, 68720263170, 68720263170, 68720263170, 68720263170, 68720263170, 68720263170, 68720263170, 68720263170, 68720263170, 68720263170, 68720263170, 68720263170, 68720263170, 68720263170, 68720263170, 68720263170, 68720263170, 68720263170, 68720263170, 68720263170, 68720263170, 68720263170, 68720263170, 68720263170, 68720263170, 68720263170, 68720263170, 68720263170,68720263170, 68720263170, 68720263170, 68720263170, 68720263170, 68720263170, 68720263170, 68720263170, 68720263170, 68720263170, 68720263170, 68720263170, 68720263170, 68720263170, 68720263170, 68720263170, 68720263170, 68720263170, 68720263170, 68720263170, 68720263170, 68720263170, 68720263170, 68720263170, 68720263170, 68720263170, 68720263170, 68720263170, 68720263170, 68720263170, 68720263170, 68720263170, 68720263170, 68720263170, 68720263170, 68720263170, 68720263170, 68720263170, 68720263170, 68720263170, 68720263170, 68720263170, 68720263170, 68720263170, 68720263170, 68720263170, 68720263170, 68720263170, 68720263170, 68720263170, 68720263170, 68720263170, 68720263170, 68720263170, 68720263170, 68720263170, 68720263170, 68720263170, 68720263170, 68720263170, 68720263170, 68720263170, 68720263170, 68720263170,68720263170, 68720263170, 68720263170, 68720263170, 68720263170, 68720263170, 68720263170, 68720263170, 68720263170, 68720263170, 68720263170, 68720263170, 68720263170, 68720263170, 68720263170, 68720263170, 68720263170, 68720263170, 68720263170, 68720263170, 68720263170, 68720263170, 68720263170, 68720263170, 68720263170, 68720263170, 68720263170, 68720263170, 68720263170, 68720263170, 68720263170, 68720263170, 68720263170, 68720263170, 68720263170, 68720263170, 68720263170, 68720263170, 68720263170, 68720263170, 68720263170, 68720263170, 68720263170, 68720263170, 68720263170, 68720263170, 68720263170, 68720263170, 68720263170, 68720263170, 68720263170, 68720263170, 68720263170, 68720263170, 68720263170, 68720263170, 68720263170, 68720263170, 68720263170, 68720263170, 68720263170, 68720263170, 68720263170, 68720263170,68720263170, 68720263170, 68720263170, 68720263170, 68720263170, 68720263170, 68720263170, 68720263170, 68720263170, 68720263170, 68720263170, 68720263170, 68720263170, 68720263170, 68720263170, 68720263170, 68720263170, 68720263170, 68720263170, 68720263170, 68720263170, 68720263170, 68720263170, 68720263170, 68720263170, 68720263170, 68720263170, 68720263170, 68720263170, 68720263170, 68720263170, 68720263170, 68720263170, 68720263170, 68720263170, 68720263170, 68720263170, 68720263170, 68720263170, 68720263170, 68720263170, 68720263170, 68720263170, 68720263170, 68720263170, 68720263170, 68720263170, 68720263170, 68720263170, 68720263170, 68720263170, 68720263170, 68720263170, 68720263170, 68720263170, 68720263170, 68720263170, 68720263170, 68720263170, 68720263170, 68720263170, 68720263170, 68720263170, 68720263170,68720263170, 68720263170, 68720263170, 68720263170, 68720263170, 68720263170, 68720263170, 68720263170, 68720263170, 68720263170, 68720263170, 68720263170, 68720263170, 68720263170, 68720263170, 68720263170, 68720263170, 68720263170, 68720263170, 68720263170, 68720263170, 68720263170, 68720263170, 68720263170, 68720263170, 68720263170, 68720263170, 68720263170, 68720263170, 68720263170, 68720263170, 68720263170, 68720263170, 68720263170, 68720263170, 68720263170, 68720263170, 68720263170, 68720263170, 68720263170, 68720263170, 68720263170, 68720263170, 68720263170, 68720263170, 68720263170, 68720263170, 68720263170, 68720263170, 68720263170, 68720263170, 68720263170, 68720263170, 68720263170, 68720263170, 68720263170, 68720263170, 68720263170, 68720263170, 68720263170, 68720263170, 68720263170, 68720263170, 68720263170,68720263170, 68720263170, 68720263170, 68720263170, 68720263170, 68720263170, 68720263170, 68720263170, 68720263170, 68720263170, 68720263170, 68720263170, 68720263170, 68720263170, 68720263170, 68720263170, 68720263170, 68720263170, 68720263170, 68720263170, 68720263170, 68720263170, 68720263170, 68720263170, 68720263170, 68720263170, 68720263170, 68720263170, 68720263170, 68720263170, 68720263170, 68720263170, 68720263170, 68720263170, 68720263170, 68720263170, 68720263170, 68720263170, 68720263170, 68720263170, 68720263170, 68720263170, 68720263170, 68720263170, 68720263170, 68720263170, 68720263170, 68720263170, 68720263170, 68720263170, 68720263170, 68720263170, 68720263170, 68720263170, 68720263170, 68720263170, 68720263170, 68720263170, 68720263170, 68720263170, 68720263170, 68720263170, 68720263170, 68720263170,68720263170, 68720263170, 68720263170, 68720263170, 68720263170, 68720263170, 68720263170, 68720263170, 68720263170, 68720263170, 68720263170, 68720263170, 68720263170, 68720263170, 68720263170, 68720263170, 68720263170, 68720263170, 68720263170, 68720263170, 68720263170, 68720263170, 68720263170, 68720263170, 68720263170, 68720263170, 68720263170, 68720263170, 68720263170, 68720263170, 68720263170, 68720263170, 68720263170, 68720263170, 68720263170, 68720263170, 68720263170, 68720263170, 68720263170, 68720263170, 68720263170, 68720263170, 68720263170, 68720263170, 68720263170, 68720263170, 68720263170, 68720263170, 68720263170, 68720263170, 68720263170, 68720263170, 68720263170, 68720263170, 68720263170, 68720263170, 68720263170, 68720263170, 68720263170, 68720263170, 68720263170, 68720263170, 68720263170, 68720263170,68720263170, 68720263170, 68720263170, 68720263170, 68720263170, 68720263170, 68720263170, 68720263170, 68720263170, 68720263170, 68720263170, 68720263170, 68720263170, 68720263170, 68720263170, 68720263170, 68720263170, 68720263170, 68720263170, 68720263170, 68720263170, 68720263170, 68720263170, 68720263170, 68720263170, 68720263170, 68720263170, 68720263170, 68720263170, 68720263170, 68720263170, 68720263170, 68720263170, 68720263170, 68720263170, 68720263170, 68720263170, 68720263170, 68720263170, 68720263170, 68720263170, 68720263170, 68720263170, 68720263170, 68720263170, 68720263170, 68720263170, 68720263170, 68720263170, 68720263170, 68720263170, 68720263170, 68720263170, 68720263170, 68720263170, 68720263170, 68720263170, 68720263170, 68720263170, 68720263170, 68720263170, 68720263170, 68720263170, 68720263170,68720263170, 68720263170, 68720263170, 68720263170, 68720263170, 68720263170, 68720263170, 68720263170, 68720263170, 68720263170, 68720263170, 68720263170, 68720263170, 68720263170, 68720263170, 68720263170, 68720263170, 68720263170, 68720263170, 68720263170, 68720263170, 68720263170, 68720263170, 68720263170, 68720263170, 68720263170, 68720263170, 68720263170, 68720263170, 68720263170, 68720263170, 68720263170, 68720263170, 68720263170, 68720263170, 68720263170, 68720263170, 68720263170, 68720263170, 68720263170, 68720263170, 68720263170, 68720263170, 68720263170, 68720263170, 68720263170, 68720263170, 68720263170, 68720263170, 68720263170, 68720263170, 68720263170, 68720263170, 68720263170, 68720263170, 68720263170, 68720263170, 68720263170, 68720263170, 68720263170, 68720263170, 68720263170, 68720263170, 68720263170,68720263170, 68720263170, 68720263170, 68720263170, 68720263170, 68720263170, 68720263170, 68720263170, 68720263170, 68720263170, 68720263170, 68720263170, 68720263170, 68720263170, 68720263170, 68720263170, 68720263170, 68720263170, 68720263170, 68720263170, 68720263170, 68720263170, 68720263170, 68720263170, 68720263170, 68720263170, 68720263170, 68720263170, 68720263170, 68720263170, 68720263170, 68720263170, 68720263170, 68720263170, 68720263170, 68720263170, 68720263170, 68720263170, 68720263170, 68720263170, 68720263170, 68720263170, 68720263170, 68720263170, 68720263170, 68720263170, 68720263170, 68720263170, 68720263170, 68720263170, 68720263170, 68720263170, 68720263170, 68720263170, 68720263170, 68720263170, 68720263170, 68720263170, 68720263170, 68720263170, 68720263170, 68720263170, 68720263170, 68720263170,68720263170, 68720263170, 68720263170, 68720263170, 68720263170, 68720263170, 68720263170, 68720263170, 68720263170, 68720263170, 68720263170, 68720263170, 68720263170, 68720263170, 68720263170, 68720263170, 68720263170, 68720263170, 68720263170, 68720263170, 68720263170, 68720263170, 68720263170, 68720263170, 68720263170, 68720263170, 68720263170, 68720263170, 68720263170, 68720263170, 68720263170, 68720263170, 68720263170, 68720263170, 68720263170, 68720263170, 68720263170, 68720263170, 68720263170, 68720263170, 68720263170, 68720263170, 68720263170, 68720263170, 68720263170, 68720263170, 68720263170, 68720263170, 68720263170, 68720263170, 68720263170, 68720263170, 68720263170, 68720263170, 68720263170, 68720263170, 68720263170, 68720263170, 68720263170, 68720263170, 68720263170, 68720263170, 68720263170, 68720263170,68720263170, 68720263170, 68720263170, 68720263170, 68720263170, 68720263170, 68720263170, 68720263170, 68720263170, 68720263170, 68720263170, 68720263170, 68720263170, 68720263170, 68720263170, 68720263170, 68720263170, 68720263170, 68720263170, 68720263170, 68720263170, 68720263170, 68720263170, 68720263170, 68720263170, 68720263170, 68720263170, 68720263170, 68720263170, 68720263170, 68720263170, 68720263170, 68720263170, 68720263170, 68720263170, 68720263170, 68720263170, 68720263170, 68720263170, 68720263170, 68720263170, 68720263170, 68720263170, 68720263170, 68720263170, 68720263170, 68720263170, 68720263170, 68720263170, 68720263170, 68720263170, 68720263170, 68720263170, 68720263170, 68720263170, 68720263170, 68720263170, 68720263170, 68720263170, 68720263170, 68720263170, 68720263170, 68720263170, 68720263170,68720263170, 68720263170, 68720263170, 68720263170, 68720263170, 68720263170, 68720263170, 68720263170, 68720263170, 68720263170, 68720263170, 68720263170, 68720263170, 68720263170, 68720263170, 68720263170, 68720263170, 68720263170, 68720263170, 68720263170, 68720263170, 68720263170, 68720263170, 68720263170, 68720263170, 68720263170, 68720263170, 68720263170, 68720263170, 68720263170, 68720263170, 68720263170, 68720263170, 68720263170, 68720263170, 68720263170, 68720263170, 68720263170, 68720263170, 68720263170, 68720263170, 68720263170, 68720263170, 68720263170, 68720263170, 68720263170, 68720263170, 68720263170, 68720263170, 68720263170, 68720263170, 68720263170, 68720263170, 68720263170, 68720263170, 68720263170, 68720263170, 68720263170, 68720263170, 68720263170, 68720263170, 68720263170, 68720263170, 68720263170,68720263170, 68720263170, 68720263170, 68720263170, 68720263170, 68720263170, 68720263170, 68720263170, 68720263170, 68720263170, 68720263170, 68720263170, 68720263170, 68720263170, 68720263170, 68720263170, 68720263170, 68720263170, 68720263170, 68720263170, 68720263170, 68720263170, 68720263170, 68720263170, 68720263170, 68720263170, 68720263170, 68720263170, 68720263170, 68720263170, 68720263170, 68720263170, 68720263170, 68720263170, 68720263170, 68720263170, 68720263170, 68720263170, 68720263170, 68720263170, 68720263170, 68720263170, 68720263170, 68720263170, 68720263170, 68720263170, 68720263170, 68720263170, 68720263170, 68720263170, 68720263170, 68720263170, 68720263170, 68720263170, 68720263170, 68720263170, 68720263170, 68720263170, 68720263170, 68720263170, 68720263170, 68720263170, 68720263170, 68720263170,68720263170, 68720263170, 68720263170, 68720263170, 68720263170, 68720263170, 68720263170, 68720263170, 68720263170, 68720263170, 68720263170, 68720263170, 68720263170, 68720263170, 68720263170, 68720263170, 68720263170, 68720263170, 68720263170, 68720263170, 68720263170, 68720263170, 68720263170, 68720263170, 68720263170, 68720263170, 68720263170, 68720263170, 68720263170, 68720263170, 68720263170, 68720263170, 68720263170, 68720263170, 68720263170, 68720263170, 68720263170, 68720263170, 68720263170, 68720263170, 68720263170, 68720263170, 68720263170, 68720263170, 68720263170, 68720263170, 68720263170, 68720263170, 68720263170, 68720263170, 68720263170, 68720263170, 68720263170, 68720263170, 68720263170, 68720263170, 68720263170, 68720263170, 68720263170, 68720263170, 68720263170, 68720263170, 68720263170, 68720263170,68720263170, 68720263170, 68720263170, 68720263170, 68720263170, 68720263170, 68720263170, 68720263170, 68720263170, 68720263170, 68720263170, 68720263170, 68720263170, 68720263170, 68720263170, 68720263170, 68720263170, 68720263170, 68720263170, 68720263170, 68720263170, 68720263170, 68720263170, 68720263170, 68720263170, 68720263170, 68720263170, 68720263170, 68720263170, 68720263170, 68720263170, 68720263170, 68720263170, 68720263170, 68720263170, 68720263170, 68720263170, 68720263170, 68720263170, 68720263170, 68720263170, 68720263170, 68720263170, 68720263170, 68720263170, 68720263170, 68720263170, 68720263170, 68720263170, 68720263170, 68720263170, 68720263170, 68720263170, 68720263170, 68720263170, 68720263170, 68720263170, 68720263170, 68720263170, 68720263170, 68720263170, 68720263170, 68720263170, 68720263170,68720263170, 68720263170, 68720263170, 68720263170, 68720263170, 68720263170, 68720263170, 68720263170, 68720263170, 68720263170, 68720263170, 68720263170, 68720263170, 68720263170, 68720263170, 68720263170, 68720263170, 68720263170, 68720263170, 68720263170, 68720263170, 68720263170, 68720263170, 68720263170, 68720263170, 68720263170, 68720263170, 68720263170, 68720263170, 68720263170, 68720263170, 68720263170, 68720263170, 68720263170, 68720263170, 68720263170, 68720263170, 68720263170, 68720263170, 68720263170, 68720263170, 68720263170, 68720263170, 68720263170, 68720263170, 68720263170, 68720263170, 68720263170, 68720263170, 68720263170, 68720263170, 68720263170, 68720263170, 68720263170, 68720263170, 68720263170, 68720263170, 68720263170, 68720263170, 68720263170, 68720263170, 68720263170, 68720263170, 68720263170,68720263170, 68720263170, 68720263170, 68720263170, 68720263170, 68720263170, 68720263170, 68720263170, 68720263170, 68720263170, 68720263170, 68720263170, 68720263170, 68720263170, 68720263170, 68720263170, 68720263170, 68720263170, 68720263170, 68720263170, 68720263170, 68720263170, 68720263170, 68720263170, 68720263170, 68720263170, 68720263170, 68720263170, 68720263170, 68720263170, 68720263170, 68720263170, 68720263170, 68720263170, 68720263170, 68720263170, 68720263170, 68720263170, 68720263170, 68720263170, 68720263170, 68720263170, 68720263170, 68720263170, 68720263170, 68720263170, 68720263170, 68720263170, 68720263170, 68720263170, 68720263170, 68720263170, 68720263170, 68720263170, 68720263170, 68720263170, 68720263170, 68720263170, 68720263170, 68720263170, 68720263170, 68720263170, 68720263170, 68720263170,68720263170, 68720263170, 68720263170, 68720263170, 68720263170, 68720263170, 68720263170, 68720263170, 68720263170, 68720263170, 68720263170, 68720263170, 68720263170, 68720263170, 68720263170, 68720263170, 68720263170, 68720263170, 68720263170, 68720263170, 68720263170, 68720263170, 68720263170, 68720263170, 68720263170, 68720263170, 68720263170, 68720263170, 68720263170, 68720263170, 68720263170, 68720263170, 68720263170, 68720263170, 68720263170, 68720263170, 68720263170, 68720263170, 68720263170, 68720263170, 68720263170, 68720263170, 68720263170, 68720263170, 68720263170, 68720263170, 68720263170, 68720263170, 68720263170, 68720263170, 68720263170, 68720263170, 68720263170, 68720263170, 68720263170, 68720263170, 68720263170, 68720263170, 68720263170, 68720263170, 68720263170, 68720263170, 68720263170, 68720263170,68720263170, 68720263170, 68720263170, 68720263170, 68720263170, 68720263170, 68720263170, 68720263170, 68720263170, 68720263170, 68720263170, 68720263170, 68720263170, 68720263170, 68720263170, 68720263170, 68720263170, 68720263170, 68720263170, 68720263170, 68720263170, 68720263170, 68720263170, 68720263170, 68720263170, 68720263170, 68720263170, 68720263170, 68720263170, 68720263170, 68720263170, 68720263170, 68720263170, 68720263170, 68720263170, 68720263170, 68720263170, 68720263170, 68720263170, 68720263170, 68720263170, 68720263170, 68720263170, 68720263170, 68720263170, 68720263170, 68720263170, 68720263170, 68720263170, 68720263170, 68720263170, 68720263170, 68720263170, 68720263170, 68720263170, 68720263170, 68720263170, 68720263170, 68720263170, 68720263170, 68720263170, 68720263170, 68720263170, 68720263170,68720263170, 68720263170, 68720263170, 68720263170, 68720263170, 68720263170, 68720263170, 68720263170, 68720263170, 68720263170, 68720263170, 68720263170, 68720263170, 68720263170, 68720263170, 68720263170, 68720263170, 68720263170, 68720263170, 68720263170, 68720263170, 68720263170, 68720263170, 68720263170, 68720263170, 68720263170, 68720263170, 68720263170, 68720263170, 68720263170, 68720263170, 68720263170, 68720263170, 68720263170, 68720263170, 68720263170, 68720263170, 68720263170, 68720263170, 68720263170, 68720263170, 68720263170, 68720263170, 68720263170, 68720263170, 68720263170, 68720263170, 68720263170, 68720263170, 68720263170, 68720263170, 68720263170, 68720263170, 68720263170, 68720263170, 68720263170, 68720263170, 68720263170, 68720263170, 68720263170, 68720263170, 68720263170, 68720263170, 68720263170,68720263170, 68720263170, 68720263170, 68720263170, 68720263170, 68720263170, 68720263170, 68720263170, 68720263170, 68720263170, 68720263170, 68720263170, 68720263170, 68720263170, 68720263170, 68720263170, 68720263170, 68720263170, 68720263170, 68720263170, 68720263170, 68720263170, 68720263170, 68720263170, 68720263170, 68720263170, 68720263170, 68720263170, 68720263170, 68720263170, 68720263170, 68720263170, 68720263170, 68720263170, 68720263170, 68720263170, 68720263170, 68720263170, 68720263170, 68720263170, 68720263170, 68720263170, 68720263170, 68720263170, 68720263170, 68720263170, 68720263170, 68720263170, 68720263170, 68720263170, 68720263170, 68720263170, 68720263170, 68720263170, 68720263170, 68720263170, 68720263170, 68720263170, 68720263170, 68720263170, 68720263170, 68720263170, 68720263170, 68720263170,68720263170, 68720263170, 68720263170, 68720263170, 68720263170, 68720263170, 68720263170, 68720263170, 68720263170, 68720263170, 68720263170, 68720263170, 68720263170, 68720263170, 68720263170, 68720263170, 68720263170, 68720263170, 68720263170, 68720263170, 68720263170, 68720263170, 68720263170, 68720263170, 68720263170, 68720263170, 68720263170, 68720263170, 68720263170, 68720263170, 68720263170, 68720263170, 68720263170, 68720263170, 68720263170, 68720263170, 68720263170, 68720263170, 68720263170, 68720263170, 68720263170, 68720263170, 68720263170, 68720263170, 68720263170, 68720263170, 68720263170, 68720263170, 68720263170, 68720263170, 68720263170, 68720263170, 68720263170, 68720263170, 68720263170, 68720263170, 68720263170, 68720263170, 68720263170, 68720263170, 68720263170, 68720263170, 68720263170, 68720263170,68720263170, 68720263170, 68720263170, 68720263170, 68720263170, 68720263170, 68720263170, 68720263170, 68720263170, 68720263170, 68720263170, 68720263170, 68720263170, 68720263170, 68720263170, 68720263170, 68720263170, 68720263170, 68720263170, 68720263170, 68720263170, 68720263170, 68720263170, 68720263170, 68720263170, 68720263170, 68720263170, 68720263170, 68720263170, 68720263170, 68720263170, 68720263170, 68720263170, 68720263170, 68720263170, 68720263170, 68720263170, 68720263170, 68720263170, 68720263170, 68720263170, 68720263170, 68720263170, 68720263170, 68720263170, 68720263170, 68720263170, 68720263170, 68720263170, 68720263170, 68720263170, 68720263170, 68720263170, 68720263170, 68720263170, 68720263170, 68720263170, 68720263170, 68720263170, 68720263170, 68720263170, 68720263170, 68720263170, 68720263170,68720263170, 68720263170, 68720263170, 68720263170, 68720263170, 68720263170, 68720263170, 68720263170, 68720263170, 68720263170, 68720263170, 68720263170, 68720263170, 68720263170, 68720263170, 68720263170, 68720263170, 68720263170, 68720263170, 68720263170, 68720263170, 68720263170, 68720263170, 68720263170, 68720263170, 68720263170, 68720263170, 68720263170, 68720263170, 68720263170, 68720263170, 68720263170, 68720263170, 68720263170, 68720263170, 68720263170, 68720263170, 68720263170, 68720263170, 68720263170, 68720263170, 68720263170, 68720263170, 68720263170, 68720263170, 68720263170, 68720263170, 68720263170, 68720263170, 68720263170, 68720263170, 68720263170, 68720263170, 68720263170, 68720263170, 68720263170, 68720263170, 68720263170, 68720263170, 68720263170, 68720263170, 68720263170, 68720263170, 68720263170,68720263170, 68720263170, 68720263170, 68720263170, 68720263170, 68720263170, 68720263170, 68720263170, 68720263170, 68720263170, 68720263170, 68720263170, 68720263170, 68720263170, 68720263170, 68720263170, 68720263170, 68720263170, 68720263170, 68720263170, 68720263170, 68720263170, 68720263170, 68720263170, 68720263170, 68720263170, 68720263170, 68720263170, 68720263170, 68720263170, 68720263170, 68720263170, 68720263170, 68720263170, 68720263170, 68720263170, 68720263170, 68720263170, 68720263170, 68720263170, 68720263170, 68720263170, 68720263170, 68720263170, 68720263170, 68720263170, 68720263170, 68720263170, 68720263170, 68720263170, 68720263170, 68720263170, 68720263170, 68720263170, 68720263170, 68720263170, 68720263170, 68720263170, 68720263170, 68720263170, 68720263170, 68720263170, 68720263170, 68720263170,68720263170, 68720263170, 68720263170, 68720263170, 68720263170, 68720263170, 68720263170, 68720263170, 68720263170, 68720263170, 68720263170, 68720263170, 68720263170, 68720263170, 68720263170, 68720263170, 68720263170, 68720263170, 68720263170, 68720263170, 68720263170, 68720263170, 68720263170, 68720263170, 68720263170, 68720263170, 68720263170, 68720263170, 68720263170, 68720263170, 68720263170, 68720263170, 68720263170, 68720263170, 68720263170, 68720263170, 68720263170, 68720263170, 68720263170, 68720263170, 68720263170, 68720263170, 68720263170, 68720263170, 68720263170, 68720263170, 68720263170, 68720263170, 68720263170, 68720263170, 68720263170, 68720263170, 68720263170, 68720263170, 68720263170, 68720263170, 68720263170, 68720263170, 68720263170, 68720263170, 68720263170, 68720263170, 68720263170, 68720263170,68720263170, 68720263170, 68720263170, 68720263170, 68720263170, 68720263170, 68720263170, 68720263170, 68720263170, 68720263170, 68720263170, 68720263170, 68720263170, 68720263170, 68720263170, 68720263170, 68720263170, 68720263170, 68720263170, 68720263170, 68720263170, 68720263170, 68720263170, 68720263170, 68720263170, 68720263170, 68720263170, 68720263170, 68720263170, 68720263170, 68720263170, 68720263170, 68720263170, 68720263170, 68720263170, 68720263170, 68720263170, 68720263170, 68720263170, 68720263170, 68720263170, 68720263170, 68720263170, 68720263170, 68720263170, 68720263170, 68720263170, 68720263170, 68720263170, 68720263170, 68720263170, 68720263170, 68720263170, 68720263170, 68720263170, 68720263170, 68720263170, 68720263170, 68720263170, 68720263170, 68720263170, 68720263170, 68720263170, 68720263170,68720263170, 68720263170, 68720263170, 68720263170, 68720263170, 68720263170, 68720263170, 68720263170, 68720263170, 68720263170, 68720263170, 68720263170, 68720263170, 68720263170, 68720263170, 68720263170, 68720263170, 68720263170, 68720263170, 68720263170, 68720263170, 68720263170, 68720263170, 68720263170, 68720263170, 68720263170, 68720263170, 68720263170, 68720263170, 68720263170, 68720263170, 68720263170, 68720263170, 68720263170, 68720263170, 68720263170, 68720263170, 68720263170, 68720263170, 68720263170, 68720263170, 68720263170, 68720263170, 68720263170, 68720263170, 68720263170, 68720263170, 68720263170, 68720263170, 68720263170, 68720263170, 68720263170, 68720263170, 68720263170, 68720263170, 68720263170, 68720263170, 68720263170, 68720263170, 68720263170, 68720263170, 68720263170, 68720263170, 68720263170,68720263170, 68720263170, 68720263170, 68720263170, 68720263170, 68720263170, 68720263170, 68720263170, 68720263170, 68720263170, 68720263170, 68720263170, 68720263170, 68720263170, 68720263170, 68720263170, 68720263170, 68720263170, 68720263170, 68720263170, 68720263170, 68720263170, 68720263170, 68720263170, 68720263170, 68720263170, 68720263170, 68720263170, 68720263170, 68720263170, 68720263170, 68720263170, 68720263170, 68720263170, 68720263170, 68720263170, 68720263170, 68720263170, 68720263170, 68720263170, 68720263170, 68720263170, 68720263170, 68720263170, 68720263170, 68720263170, 68720263170, 68720263170, 68720263170, 68720263170, 68720263170, 68720263170, 68720263170, 68720263170, 68720263170, 68720263170, 68720263170, 68720263170, 68720263170, 68720263170, 68720263170, 68720263170, 68720263170, 68720263170,68720263170, 68720263170, 68720263170, 68720263170, 68720263170, 68720263170, 68720263170, 68720263170, 68720263170, 68720263170, 68720263170, 68720263170, 68720263170, 68720263170, 68720263170, 68720263170, 68720263170, 68720263170, 68720263170, 68720263170, 68720263170, 68720263170, 68720263170, 68720263170, 68720263170, 68720263170, 68720263170, 68720263170, 68720263170, 68720263170, 68720263170, 68720263170, 68720263170, 68720263170, 68720263170, 68720263170, 68720263170, 68720263170, 68720263170, 68720263170, 68720263170, 68720263170, 68720263170, 68720263170, 68720263170, 68720263170, 68720263170, 68720263170, 68720263170, 68720263170, 68720263170, 68720263170, 68720263170, 68720263170, 68720263170, 68720263170, 68720263170, 68720263170, 68720263170, 68720263170, 68720263170, 68720263170, 68720263170, 68720263170,68720263170, 68720263170, 68720263170, 68720263170, 68720263170, 68720263170, 68720263170, 68720263170, 68720263170, 68720263170, 68720263170, 68720263170, 68720263170, 68720263170, 68720263170, 68720263170, 68720263170, 68720263170, 68720263170, 68720263170, 68720263170, 68720263170, 68720263170, 68720263170, 68720263170, 68720263170, 68720263170, 68720263170, 68720263170, 68720263170, 68720263170, 68720263170, 68720263170, 68720263170, 68720263170, 68720263170, 68720263170, 68720263170, 68720263170, 68720263170, 68720263170, 68720263170, 68720263170, 68720263170, 68720263170, 68720263170, 68720263170, 68720263170, 68720263170, 68720263170, 68720263170, 68720263170, 68720263170, 68720263170, 68720263170, 68720263170, 68720263170, 68720263170, 68720263170, 68720263170, 68720263170, 68720263170, 68720263170, 68720263170,68720263170, 68720263170, 68720263170, 68720263170, 68720263170, 68720263170, 68720263170, 68720263170, 68720263170, 68720263170, 68720263170, 68720263170, 68720263170, 68720263170, 68720263170, 68720263170, 68720263170, 68720263170, 68720263170, 68720263170, 68720263170, 68720263170, 68720263170, 68720263170, 68720263170, 68720263170, 68720263170, 68720263170, 68720263170, 68720263170, 68720263170, 68720263170, 68720263170, 68720263170, 68720263170, 68720263170, 68720263170, 68720263170, 68720263170, 68720263170, 68720263170, 68720263170, 68720263170, 68720263170, 68720263170, 68720263170, 68720263170, 68720263170, 68720263170, 68720263170, 68720263170, 68720263170, 68720263170, 68720263170, 68720263170, 68720263170, 68720263170, 68720263170, 68720263170, 68720263170, 68720263170, 68720263170, 68720263170, 68720263170,68720263170, 68720263170, 68720263170, 68720263170, 68720263170, 68720263170, 68720263170, 68720263170, 68720263170, 68720263170, 68720263170, 68720263170, 68720263170, 68720263170, 68720263170, 68720263170, 68720263170, 68720263170, 68720263170, 68720263170, 68720263170, 68720263170, 68720263170, 68720263170, 68720263170, 68720263170, 68720263170, 68720263170, 68720263170, 68720263170, 68720263170, 68720263170, 68720263170, 68720263170, 68720263170, 68720263170, 68720263170, 68720263170, 68720263170, 68720263170, 68720263170, 68720263170, 68720263170, 68720263170, 68720263170, 68720263170, 68720263170, 68720263170, 68720263170, 68720263170, 68720263170, 68720263170, 68720263170, 68720263170, 68720263170, 68720263170, 68720263170, 68720263170, 68720263170, 68720263170, 68720263170, 68720263170, 68720263170, 68720263170,68720263170, 68720263170, 68720263170, 68720263170, 68720263170, 68720263170, 68720263170, 68720263170, 68720263170, 68720263170, 68720263170, 68720263170, 68720263170, 68720263170, 68720263170, 68720263170, 68720263170, 68720263170, 68720263170, 68720263170, 68720263170, 68720263170, 68720263170, 68720263170, 68720263170, 68720263170, 68720263170, 68720263170, 68720263170, 68720263170, 68720263170, 68720263170, 68720263170, 68720263170, 68720263170, 68720263170, 68720263170, 68720263170, 68720263170, 68720263170, 68720263170, 68720263170, 68720263170, 68720263170, 68720263170, 68720263170, 68720263170, 68720263170, 68720263170, 68720263170, 68720263170, 68720263170, 68720263170, 68720263170, 68720263170, 68720263170, 68720263170, 68720263170, 68720263170, 68720263170, 68720263170, 68720263170, 68720263170, 68720263170,68720263170, 68720263170, 68720263170, 68720263170, 68720263170, 68720263170, 68720263170, 68720263170, 68720263170, 68720263170, 68720263170, 68720263170, 68720263170, 68720263170, 68720263170, 68720263170, 68720263170, 68720263170, 68720263170, 68720263170, 68720263170, 68720263170, 68720263170, 68720263170, 68720263170, 68720263170, 68720263170, 68720263170, 68720263170, 68720263170, 68720263170, 68720263170, 68720263170, 68720263170, 68720263170, 68720263170, 68720263170, 68720263170, 68720263170, 68720263170, 68720263170, 68720263170, 68720263170, 68720263170, 68720263170, 68720263170, 68720263170, 68720263170, 68720263170, 68720263170, 68720263170, 68720263170, 68720263170, 68720263170, 68720263170, 68720263170, 68720263170, 68720263170, 68720263170, 68720263170, 68720263170, 68720263170, 68720263170, 68720263170,68720263170, 68720263170, 68720263170, 68720263170, 68720263170, 68720263170, 68720263170, 68720263170, 68720263170, 68720263170, 68720263170, 68720263170, 68720263170, 68720263170, 68720263170, 68720263170, 68720263170, 68720263170, 68720263170, 68720263170, 68720263170, 68720263170, 68720263170, 68720263170, 68720263170, 68720263170, 68720263170, 68720263170, 68720263170, 68720263170, 68720263170, 68720263170, 68720263170, 68720263170, 68720263170, 68720263170, 68720263170, 68720263170, 68720263170, 68720263170, 68720263170, 68720263170, 68720263170, 68720263170, 68720263170, 68720263170, 68720263170, 68720263170, 68720263170, 68720263170, 68720263170, 68720263170, 68720263170, 68720263170, 68720263170, 68720263170, 68720263170, 68720263170, 68720263170, 68720263170, 68720263170, 68720263170, 68720263170, 68720263170,68720263170, 68720263170, 68720263170, 68720263170, 68720263170, 68720263170, 68720263170, 68720263170, 68720263170, 68720263170, 68720263170, 68720263170, 68720263170, 68720263170, 68720263170, 68720263170, 68720263170, 68720263170, 68720263170, 68720263170, 68720263170, 68720263170, 68720263170, 68720263170, 68720263170, 68720263170, 68720263170, 68720263170, 68720263170, 68720263170, 68720263170, 68720263170, 68720263170, 68720263170, 68720263170, 68720263170, 68720263170, 68720263170, 68720263170, 68720263170, 68720263170, 68720263170, 68720263170, 68720263170, 68720263170, 68720263170, 68720263170, 68720263170, 68720263170, 68720263170, 68720263170, 68720263170, 68720263170, 68720263170, 68720263170, 68720263170, 68720263170, 68720263170, 68720263170, 68720263170, 68720263170, 68720263170, 68720263170, 68720263170,68720263170, 68720263170, 68720263170, 68720263170, 68720263170, 68720263170, 68720263170, 68720263170, 68720263170, 68720263170, 68720263170, 68720263170, 68720263170, 68720263170, 68720263170, 68720263170, 68720263170, 68720263170, 68720263170, 68720263170, 68720263170, 68720263170, 68720263170, 68720263170, 68720263170, 68720263170, 68720263170, 68720263170, 68720263170, 68720263170, 68720263170, 68720263170, 68720263170, 68720263170, 68720263170, 68720263170, 68720263170, 68720263170, 68720263170, 68720263170, 68720263170, 68720263170, 68720263170, 68720263170, 68720263170, 68720263170, 68720263170, 68720263170, 68720263170, 68720263170, 68720263170, 68720263170, 68720263170, 68720263170, 68720263170, 68720263170, 68720263170, 68720263170, 68720263170, 68720263170, 68720263170, 68720263170, 68720263170, 68720263170,68720263170, 68720263170, 68720263170, 68720263170, 68720263170, 68720263170, 68720263170, 68720263170, 68720263170, 68720263170, 68720263170, 68720263170, 68720263170, 68720263170, 68720263170, 68720263170, 68720263170, 68720263170, 68720263170, 68720263170, 68720263170, 68720263170, 68720263170, 68720263170, 68720263170, 68720263170, 68720263170, 68720263170, 68720263170, 68720263170, 68720263170, 68720263170, 68720263170, 68720263170, 68720263170, 68720263170, 68720263170, 68720263170, 68720263170, 68720263170, 68720263170, 68720263170, 68720263170, 68720263170, 68720263170, 68720263170, 68720263170, 68720263170, 68720263170, 68720263170, 68720263170, 68720263170, 68720263170, 68720263170, 68720263170, 68720263170, 68720263170, 68720263170, 68720263170, 68720263170, 68720263170, 68720263170, 68720263170, 68720263170,68720263170, 68720263170, 68720263170, 68720263170, 68720263170, 68720263170, 68720263170, 68720263170, 68720263170, 68720263170, 68720263170, 68720263170, 68720263170, 68720263170, 68720263170, 68720263170, 68720263170, 68720263170, 68720263170, 68720263170, 68720263170, 68720263170, 68720263170, 68720263170, 68720263170, 68720263170, 68720263170, 68720263170, 68720263170, 68720263170, 68720263170, 68720263170, 68720263170, 68720263170, 68720263170, 68720263170, 68720263170, 68720263170, 68720263170, 68720263170, 68720263170, 68720263170, 68720263170, 68720263170, 68720263170, 68720263170, 68720263170, 68720263170, 68720263170, 68720263170, 68720263170, 68720263170, 68720263170, 68720263170, 68720263170, 68720263170, 68720263170, 68720263170, 68720263170, 68720263170, 68720263170, 68720263170, 68720263170, 68720263170,68720263170, 68720263170, 68720263170, 68720263170, 68720263170, 68720263170, 68720263170, 68720263170, 68720263170, 68720263170, 68720263170, 68720263170, 68720263170, 68720263170, 68720263170, 68720263170, 68720263170, 68720263170, 68720263170, 68720263170, 68720263170, 68720263170, 68720263170, 68720263170, 68720263170, 68720263170, 68720263170, 68720263170, 68720263170, 68720263170, 68720263170, 68720263170, 68720263170, 68720263170, 68720263170, 68720263170, 68720263170, 68720263170, 68720263170, 68720263170, 68720263170, 68720263170, 68720263170, 68720263170, 68720263170, 68720263170, 68720263170, 68720263170, 68720263170, 68720263170, 68720263170, 68720263170, 68720263170, 68720263170, 68720263170, 68720263170, 68720263170, 68720263170, 68720263170, 68720263170, 68720263170, 68720263170, 68720263170, 68720263170,68720263170, 68720263170, 68720263170, 68720263170, 68720263170, 68720263170, 68720263170, 68720263170, 68720263170, 68720263170, 68720263170, 68720263170, 68720263170, 68720263170, 68720263170, 68720263170, 68720263170, 68720263170, 68720263170, 68720263170, 68720263170, 68720263170, 68720263170, 68720263170, 68720263170, 68720263170, 68720263170, 68720263170, 68720263170, 68720263170, 68720263170, 68720263170, 68720263170, 68720263170, 68720263170, 68720263170, 68720263170, 68720263170, 68720263170, 68720263170, 68720263170, 68720263170, 68720263170, 68720263170, 68720263170, 68720263170, 68720263170, 68720263170, 68720263170, 68720263170, 68720263170, 68720263170, 68720263170, 68720263170, 68720263170, 68720263170, 68720263170, 68720263170, 68720263170, 68720263170, 68720263170, 68720263170, 68720263170, 68720263170,68720263170, 68720263170, 68720263170, 68720263170, 68720263170, 68720263170, 68720263170, 68720263170, 68720263170, 68720263170, 68720263170, 68720263170, 68720263170, 68720263170, 68720263170, 68720263170, 68720263170, 68720263170, 68720263170, 68720263170, 68720263170, 68720263170, 68720263170, 68720263170, 68720263170, 68720263170, 68720263170, 68720263170, 68720263170, 68720263170, 68720263170, 68720263170, 68720263170, 68720263170, 68720263170, 68720263170, 68720263170, 68720263170, 68720263170, 68720263170, 68720263170, 68720263170, 68720263170, 68720263170, 68720263170, 68720263170, 68720263170, 68720263170, 68720263170, 68720263170, 68720263170, 68720263170, 68720263170, 68720263170, 68720263170, 68720263170, 68720263170, 68720263170, 68720263170, 68720263170, 68720263170, 68720263170, 68720263170, 68720263170,68720263170, 68720263170, 68720263170, 68720263170, 68720263170, 68720263170, 68720263170, 68720263170, 68720263170, 68720263170, 68720263170, 68720263170, 68720263170, 68720263170, 68720263170, 68720263170, 68720263170, 68720263170, 68720263170, 68720263170, 68720263170, 68720263170, 68720263170, 68720263170, 68720263170, 68720263170, 68720263170, 68720263170, 68720263170, 68720263170, 68720263170, 68720263170, 68720263170, 68720263170, 68720263170, 68720263170, 68720263170, 68720263170, 68720263170, 68720263170, 68720263170, 68720263170, 68720263170, 68720263170, 68720263170, 68720263170, 68720263170, 68720263170, 68720263170, 68720263170, 68720263170, 68720263170, 68720263170, 68720263170, 68720263170, 68720263170, 68720263170, 68720263170, 68720263170, 68720263170, 68720263170, 68720263170, 68720263170, 68720263170,68720263170, 68720263170, 68720263170, 68720263170, 68720263170, 68720263170, 68720263170, 68720263170, 68720263170, 68720263170, 68720263170, 68720263170, 68720263170, 68720263170, 68720263170, 68720263170, 68720263170, 68720263170, 68720263170, 68720263170, 68720263170, 68720263170, 68720263170, 68720263170, 68720263170, 68720263170, 68720263170, 68720263170, 68720263170, 68720263170, 68720263170, 68720263170, 68720263170, 68720263170, 68720263170, 68720263170, 68720263170, 68720263170, 68720263170, 68720263170, 68720263170, 68720263170, 68720263170, 68720263170, 68720263170, 68720263170, 68720263170, 68720263170, 68720263170, 68720263170, 68720263170, 68720263170, 68720263170, 68720263170, 68720263170, 68720263170, 68720263170, 68720263170, 68720263170, 68720263170, 68720263170, 68720263170, 68720263170, 68720263170,68720263170, 68720263170, 68720263170, 68720263170, 68720263170, 68720263170, 68720263170, 68720263170, 68720263170, 68720263170, 68720263170, 68720263170, 68720263170, 68720263170, 68720263170, 68720263170, 68720263170, 68720263170, 68720263170, 68720263170, 68720263170, 68720263170, 68720263170, 68720263170, 68720263170, 68720263170, 68720263170, 68720263170, 68720263170, 68720263170, 68720263170, 68720263170, 68720263170, 68720263170, 68720263170, 68720263170, 68720263170, 68720263170, 68720263170, 68720263170, 68720263170, 68720263170, 68720263170, 68720263170, 68720263170, 68720263170, 68720263170, 68720263170, 68720263170, 68720263170, 68720263170, 68720263170, 68720263170, 68720263170, 68720263170, 68720263170, 68720263170, 68720263170, 68720263170, 68720263170, 68720263170, 68720263170, 68720263170, 68720263170,68720263170, 68720263170, 68720263170, 68720263170, 68720263170, 68720263170, 68720263170, 68720263170, 68720263170, 68720263170, 68720263170, 68720263170, 68720263170, 68720263170, 68720263170, 68720263170, 68720263170, 68720263170, 68720263170, 68720263170, 68720263170, 68720263170, 68720263170, 68720263170, 68720263170, 68720263170, 68720263170, 68720263170, 68720263170, 68720263170, 68720263170, 68720263170, 68720263170, 68720263170, 68720263170, 68720263170, 68720263170, 68720263170, 68720263170, 68720263170, 68720263170, 68720263170, 68720263170, 68720263170, 68720263170, 68720263170, 68720263170, 68720263170, 68720263170, 68720263170, 68720263170, 68720263170, 68720263170, 68720263170, 68720263170, 68720263170, 68720263170, 68720263170, 68720263170, 68720263170, 68720263170, 68720263170, 68720263170, 68720263170,68720263170, 68720263170, 68720263170, 68720263170, 68720263170, 68720263170, 68720263170, 68720263170, 68720263170, 68720263170, 68720263170, 68720263170, 68720263170, 68720263170, 68720263170, 68720263170, 68720263170, 68720263170, 68720263170, 68720263170, 68720263170, 68720263170, 68720263170, 68720263170, 68720263170, 68720263170, 68720263170, 68720263170, 68720263170, 68720263170, 68720263170, 68720263170, 68720263170, 68720263170, 68720263170, 68720263170, 68720263170, 68720263170, 68720263170, 68720263170, 68720263170, 68720263170, 68720263170, 68720263170, 68720263170, 68720263170, 68720263170, 68720263170, 68720263170, 68720263170, 68720263170, 68720263170, 68720263170, 68720263170, 68720263170, 68720263170, 68720263170, 68720263170, 68720263170, 68720263170, 68720263170, 68720263170, 68720263170, 68720263170,68720263170, 68720263170, 68720263170, 68720263170, 68720263170, 68720263170, 68720263170, 68720263170, 68720263170, 68720263170, 68720263170, 68720263170, 68720263170, 68720263170, 68720263170, 68720263170, 68720263170, 68720263170, 68720263170, 68720263170, 68720263170, 68720263170, 68720263170, 68720263170, 68720263170, 68720263170, 68720263170, 68720263170, 68720263170, 68720263170, 68720263170, 68720263170, 68720263170, 68720263170, 68720263170, 68720263170, 68720263170, 68720263170, 68720263170, 68720263170, 68720263170, 68720263170, 68720263170, 68720263170, 68720263170, 68720263170, 68720263170, 68720263170, 68720263170, 68720263170, 68720263170, 68720263170, 68720263170, 68720263170, 68720263170, 68720263170, 68720263170, 68720263170, 68720263170, 68720263170, 68720263170, 68720263170, 68720263170, 68720263170,68720263170, 68720263170, 68720263170, 68720263170, 68720263170, 68720263170, 68720263170, 68720263170, 68720263170, 68720263170, 68720263170, 68720263170, 68720263170, 68720263170, 68720263170, 68720263170, 68720263170, 68720263170, 68720263170, 68720263170, 68720263170, 68720263170, 68720263170, 68720263170, 68720263170, 68720263170, 68720263170, 68720263170, 68720263170, 68720263170, 68720263170, 68720263170, 68720263170, 68720263170, 68720263170, 68720263170, 68720263170, 68720263170, 68720263170, 68720263170, 68720263170, 68720263170, 68720263170, 68720263170, 68720263170, 68720263170, 68720263170, 68720263170, 68720263170, 68720263170, 68720263170, 68720263170, 68720263170, 68720263170, 68720263170, 68720263170, 68720263170, 68720263170, 68720263170, 68720263170, 68720263170, 68720263170, 68720263170, 68720263170,68720263170, 68720263170, 68720263170, 68720263170, 68720263170, 68720263170, 68720263170, 68720263170, 68720263170, 68720263170, 68720263170, 68720263170, 68720263170, 68720263170, 68720263170, 68720263170, 68720263170, 68720263170, 68720263170, 68720263170, 68720263170, 68720263170, 68720263170, 68720263170, 68720263170, 68720263170, 68720263170, 68720263170, 68720263170, 68720263170, 68720263170, 68720263170, 68720263170, 68720263170, 68720263170, 68720263170, 68720263170, 68720263170, 68720263170, 68720263170, 68720263170, 68720263170, 68720263170, 68720263170, 68720263170, 68720263170, 68720263170, 68720263170, 68720263170, 68720263170, 68720263170, 68720263170, 68720263170, 68720263170, 68720263170, 68720263170, 68720263170, 68720263170, 68720263170, 68720263170, 68720263170, 68720263170, 68720263170, 68720263170,68720263170, 68720263170, 68720263170, 68720263170, 68720263170, 68720263170, 68720263170, 68720263170, 68720263170, 68720263170, 68720263170, 68720263170, 68720263170, 68720263170, 68720263170, 68720263170, 68720263170, 68720263170, 68720263170, 68720263170, 68720263170, 68720263170, 68720263170, 68720263170, 68720263170, 68720263170, 68720263170, 68720263170, 68720263170, 68720263170, 68720263170, 68720263170, 68720263170, 68720263170, 68720263170, 68720263170, 68720263170, 68720263170, 68720263170, 68720263170, 68720263170, 68720263170, 68720263170, 68720263170, 68720263170, 68720263170, 68720263170, 68720263170, 68720263170, 68720263170, 68720263170, 68720263170, 68720263170, 68720263170, 68720263170, 68720263170, 68720263170, 68720263170, 68720263170, 68720263170, 68720263170, 68720263170, 68720263170, 68720263170,68720263170, 68720263170, 68720263170, 68720263170, 68720263170, 68720263170, 68720263170, 68720263170, 68720263170, 68720263170, 68720263170, 68720263170, 68720263170, 68720263170, 68720263170, 68720263170, 68720263170, 68720263170, 68720263170, 68720263170, 68720263170, 68720263170, 68720263170, 68720263170, 68720263170, 68720263170, 68720263170, 68720263170, 68720263170, 68720263170, 68720263170, 68720263170, 68720263170, 68720263170, 68720263170, 68720263170, 68720263170, 68720263170, 68720263170, 68720263170, 68720263170, 68720263170, 68720263170, 68720263170, 68720263170, 68720263170, 68720263170, 68720263170, 68720263170, 68720263170, 68720263170, 68720263170, 68720263170, 68720263170, 68720263170, 68720263170, 68720263170, 68720263170, 68720263170, 68720263170, 68720263170, 68720263170, 68720263170, 68720263170,68720263170, 68720263170, 68720263170, 68720263170, 68720263170, 68720263170, 68720263170, 68720263170, 68720263170, 68720263170, 68720263170, 68720263170, 68720263170, 68720263170, 68720263170, 68720263170, 68720263170, 68720263170, 68720263170, 68720263170, 68720263170, 68720263170, 68720263170, 68720263170, 68720263170, 68720263170, 68720263170, 68720263170, 68720263170, 68720263170, 68720263170, 68720263170, 68720263170, 68720263170, 68720263170, 68720263170, 68720263170, 68720263170, 68720263170, 68720263170, 68720263170, 68720263170, 68720263170, 68720263170, 68720263170, 68720263170, 68720263170, 68720263170, 68720263170, 68720263170, 68720263170, 68720263170, 68720263170, 68720263170, 68720263170, 68720263170, 68720263170, 68720263170, 68720263170, 68720263170, 68720263170, 68720263170, 68720263170, 68720263170,68720263170, 68720263170, 68720263170, 68720263170, 68720263170, 68720263170, 68720263170, 68720263170, 68720263170, 68720263170, 68720263170, 68720263170, 68720263170, 68720263170, 68720263170, 68720263170, 68720263170, 68720263170, 68720263170, 68720263170, 68720263170, 68720263170, 68720263170, 68720263170, 68720263170, 68720263170, 68720263170, 68720263170, 68720263170, 68720263170, 68720263170, 68720263170, 68720263170, 68720263170, 68720263170, 68720263170, 68720263170, 68720263170, 68720263170, 68720263170, 68720263170, 68720263170, 68720263170, 68720263170, 68720263170, 68720263170, 68720263170, 68720263170, 68720263170, 68720263170, 68720263170, 68720263170, 68720263170, 68720263170, 68720263170, 68720263170, 68720263170, 68720263170, 68720263170, 68720263170, 68720263170, 68720263170, 68720263170, 68720263170,68720263170, 68720263170, 68720263170, 68720263170, 68720263170, 68720263170, 68720263170, 68720263170, 68720263170, 68720263170, 68720263170, 68720263170, 68720263170, 68720263170, 68720263170, 68720263170, 68720263170, 68720263170, 68720263170, 68720263170, 68720263170, 68720263170, 68720263170, 68720263170, 68720263170, 68720263170, 68720263170, 68720263170, 68720263170, 68720263170, 68720263170, 68720263170, 68720263170, 68720263170, 68720263170, 68720263170, 68720263170, 68720263170, 68720263170, 68720263170, 68720263170, 68720263170, 68720263170, 68720263170, 68720263170, 68720263170, 68720263170, 68720263170, 68720263170, 68720263170, 68720263170, 68720263170, 68720263170, 68720263170, 68720263170, 68720263170, 68720263170, 68720263170, 68720263170, 68720263170, 68720263170, 68720263170, 68720263170, 68720263170,68720263170, 68720263170, 68720263170, 68720263170, 68720263170, 68720263170, 68720263170, 68720263170, 68720263170, 68720263170, 68720263170, 68720263170, 68720263170, 68720263170, 68720263170, 68720263170, 68720263170, 68720263170, 68720263170, 68720263170, 68720263170, 68720263170, 68720263170, 68720263170, 68720263170, 68720263170, 68720263170, 68720263170, 68720263170, 68720263170, 68720263170, 68720263170, 68720263170, 68720263170, 68720263170, 68720263170, 68720263170, 68720263170, 68720263170, 68720263170, 68720263170, 68720263170, 68720263170, 68720263170, 68720263170, 68720263170, 68720263170, 68720263170, 68720263170, 68720263170, 68720263170, 68720263170, 68720263170, 68720263170, 68720263170, 68720263170, 68720263170, 68720263170, 68720263170, 68720263170, 68720263170, 68720263170, 68720263170, 68720263170,68720263170, 68720263170, 68720263170, 68720263170, 68720263170, 68720263170, 68720263170, 68720263170, 68720263170, 68720263170, 68720263170, 68720263170, 68720263170, 68720263170, 68720263170, 68720263170, 68720263170, 68720263170, 68720263170, 68720263170, 68720263170, 68720263170, 68720263170, 68720263170, 68720263170, 68720263170, 68720263170, 68720263170, 68720263170, 68720263170, 68720263170, 68720263170, 68720263170, 68720263170, 68720263170, 68720263170, 68720263170, 68720263170, 68720263170, 68720263170, 68720263170, 68720263170, 68720263170, 68720263170, 68720263170, 68720263170, 68720263170, 68720263170, 68720263170, 68720263170, 68720263170, 68720263170, 68720263170, 68720263170, 68720263170, 68720263170, 68720263170, 68720263170, 68720263170, 68720263170, 68720263170, 68720263170, 68720263170, 68720263170,68720263170, 68720263170, 68720263170, 68720263170, 68720263170, 68720263170, 68720263170, 68720263170, 68720263170, 68720263170, 68720263170, 68720263170, 68720263170, 68720263170, 68720263170, 68720263170, 68720263170, 68720263170, 68720263170, 68720263170, 68720263170, 68720263170, 68720263170, 68720263170, 68720263170, 68720263170, 68720263170, 68720263170, 68720263170, 68720263170, 68720263170, 68720263170, 68720263170, 68720263170, 68720263170, 68720263170, 68720263170, 68720263170, 68720263170, 68720263170, 68720263170, 68720263170, 68720263170, 68720263170, 68720263170, 68720263170, 68720263170, 68720263170, 68720263170, 68720263170, 68720263170, 68720263170, 68720263170, 68720263170, 68720263170, 68720263170, 68720263170, 68720263170, 68720263170, 68720263170, 68720263170, 68720263170, 68720263170, 68720263170,68720263170, 68720263170, 68720263170, 68720263170, 68720263170, 68720263170, 68720263170, 68720263170, 68720263170, 68720263170, 68720263170, 68720263170, 68720263170, 68720263170, 68720263170, 68720263170, 68720263170, 68720263170, 68720263170, 68720263170, 68720263170, 68720263170, 68720263170, 68720263170, 68720263170, 68720263170, 68720263170, 68720263170, 68720263170, 68720263170, 68720263170, 68720263170, 68720263170, 68720263170, 68720263170, 68720263170, 68720263170, 68720263170, 68720263170, 68720263170, 68720263170, 68720263170, 68720263170, 68720263170, 68720263170, 68720263170, 68720263170, 68720263170, 68720263170, 68720263170, 68720263170, 68720263170, 68720263170, 68720263170, 68720263170, 68720263170, 68720263170, 68720263170, 68720263170, 68720263170, 68720263170, 68720263170, 68720263170, 68720263170,68720263170, 68720263170, 68720263170, 68720263170, 68720263170, 68720263170, 68720263170, 68720263170, 68720263170, 68720263170, 68720263170, 68720263170, 68720263170, 68720263170, 68720263170, 68720263170, 68720263170, 68720263170, 68720263170, 68720263170, 68720263170, 68720263170, 68720263170, 68720263170, 68720263170, 68720263170, 68720263170, 68720263170, 68720263170, 68720263170, 68720263170, 68720263170, 68720263170, 68720263170, 68720263170, 68720263170, 68720263170, 68720263170, 68720263170, 68720263170, 68720263170, 68720263170, 68720263170, 68720263170, 68720263170, 68720263170, 68720263170, 68720263170, 68720263170, 68720263170, 68720263170, 68720263170, 68720263170, 68720263170, 68720263170, 68720263170, 68720263170, 68720263170, 68720263170, 68720263170, 68720263170, 68720263170, 68720263170, 68720263170,68720263170, 68720263170, 68720263170, 68720263170, 68720263170, 68720263170, 68720263170, 68720263170, 68720263170, 68720263170, 68720263170, 68720263170, 68720263170, 68720263170, 68720263170, 68720263170, 68720263170, 68720263170, 68720263170, 68720263170, 68720263170, 68720263170, 68720263170, 68720263170, 68720263170, 68720263170, 68720263170, 68720263170, 68720263170, 68720263170, 68720263170, 68720263170, 68720263170, 68720263170, 68720263170, 68720263170, 68720263170, 68720263170, 68720263170, 68720263170, 68720263170, 68720263170, 68720263170, 68720263170, 68720263170, 68720263170, 68720263170, 68720263170, 68720263170, 68720263170, 68720263170, 68720263170, 68720263170, 68720263170, 68720263170, 68720263170, 68720263170, 68720263170, 68720263170, 68720263170, 68720263170, 68720263170, 68720263170, 68720263170,68720263170, 68720263170, 68720263170, 68720263170, 68720263170, 68720263170, 68720263170, 68720263170, 68720263170, 68720263170, 68720263170, 68720263170, 68720263170, 68720263170, 68720263170, 68720263170, 68720263170, 68720263170, 68720263170, 68720263170, 68720263170, 68720263170, 68720263170, 68720263170, 68720263170, 68720263170, 68720263170, 68720263170, 68720263170, 68720263170, 68720263170, 68720263170, 68720263170, 68720263170, 68720263170, 68720263170, 68720263170, 68720263170, 68720263170, 68720263170, 68720263170, 68720263170, 68720263170, 68720263170, 68720263170, 68720263170, 68720263170, 68720263170, 68720263170, 68720263170, 68720263170, 68720263170, 68720263170, 68720263170, 68720263170, 68720263170, 68720263170, 68720263170, 68720263170, 68720263170, 68720263170, 68720263170, 68720263170, 68720263170,68720263170, 68720263170, 68720263170, 68720263170, 68720263170, 68720263170, 68720263170, 68720263170, 68720263170, 68720263170, 68720263170, 68720263170, 68720263170, 68720263170, 68720263170, 68720263170, 68720263170, 68720263170, 68720263170, 68720263170, 68720263170, 68720263170, 68720263170, 68720263170, 68720263170, 68720263170, 68720263170, 68720263170, 68720263170, 68720263170, 68720263170, 68720263170, 68720263170, 68720263170, 68720263170, 68720263170, 68720263170, 68720263170, 68720263170, 68720263170, 68720263170, 68720263170, 68720263170, 68720263170, 68720263170, 68720263170, 68720263170, 68720263170, 68720263170, 68720263170, 68720263170, 68720263170, 68720263170, 68720263170, 68720263170, 68720263170, 68720263170, 68720263170, 68720263170, 68720263170, 68720263170, 68720263170, 68720263170, 68720263170,68720263170, 68720263170, 68720263170, 68720263170, 68720263170, 68720263170, 68720263170, 68720263170, 68720263170, 68720263170, 68720263170, 68720263170, 68720263170, 68720263170, 68720263170, 68720263170, 68720263170, 68720263170, 68720263170, 68720263170, 68720263170, 68720263170, 68720263170, 68720263170, 68720263170, 68720263170, 68720263170, 68720263170, 68720263170, 68720263170, 68720263170, 68720263170, 68720263170, 68720263170, 68720263170, 68720263170, 68720263170, 68720263170, 68720263170, 68720263170, 68720263170, 68720263170, 68720263170, 68720263170, 68720263170, 68720263170, 68720263170, 68720263170, 68720263170, 68720263170, 68720263170, 68720263170, 68720263170, 68720263170, 68720263170, 68720263170, 68720263170, 68720263170, 68720263170, 68720263170, 68720263170, 68720263170, 68720263170, 68720263170,68720263170, 68720263170, 68720263170, 68720263170, 68720263170, 68720263170, 68720263170, 68720263170, 68720263170, 68720263170, 68720263170, 68720263170, 68720263170, 68720263170, 68720263170, 68720263170, 68720263170, 68720263170, 68720263170, 68720263170, 68720263170, 68720263170, 68720263170, 68720263170, 68720263170, 68720263170, 68720263170, 68720263170, 68720263170, 68720263170, 68720263170, 68720263170, 68720263170, 68720263170, 68720263170, 68720263170, 68720263170, 68720263170, 68720263170, 68720263170, 68720263170, 68720263170, 68720263170, 68720263170, 68720263170, 68720263170, 68720263170, 68720263170, 68720263170, 68720263170, 68720263170, 68720263170, 68720263170, 68720263170, 68720263170, 68720263170, 68720263170, 68720263170, 68720263170, 68720263170, 68720263170, 68720263170, 68720263170, 68720263170,68720263170, 68720263170, 68720263170, 68720263170, 68720263170, 68720263170, 68720263170, 68720263170, 68720263170, 68720263170, 68720263170, 68720263170, 68720263170, 68720263170, 68720263170, 68720263170, 68720263170, 68720263170, 68720263170, 68720263170, 68720263170, 68720263170, 68720263170, 68720263170, 68720263170, 68720263170, 68720263170, 68720263170, 68720263170, 68720263170, 68720263170, 68720263170, 68720263170, 68720263170, 68720263170, 68720263170, 68720263170, 68720263170, 68720263170, 68720263170, 68720263170, 68720263170, 68720263170, 68720263170, 68720263170, 68720263170, 68720263170, 68720263170, 68720263170, 68720263170, 68720263170, 68720263170, 68720263170, 68720263170, 68720263170, 68720263170, 68720263170, 68720263170, 68720263170, 68720263170, 68720263170, 68720263170, 68720263170, 68720263170,68720263170, 68720263170, 68720263170, 68720263170, 68720263170, 68720263170, 68720263170, 68720263170, 68720263170, 68720263170, 68720263170, 68720263170, 68720263170, 68720263170, 68720263170, 68720263170, 68720263170, 68720263170, 68720263170, 68720263170, 68720263170, 68720263170, 68720263170, 68720263170, 68720263170, 68720263170, 68720263170, 68720263170, 68720263170, 68720263170, 68720263170, 68720263170, 68720263170, 68720263170, 68720263170, 68720263170, 68720263170, 68720263170, 68720263170, 68720263170, 68720263170, 68720263170, 68720263170, 68720263170, 68720263170, 68720263170, 68720263170, 68720263170, 68720263170, 68720263170, 68720263170, 68720263170, 68720263170, 68720263170, 68720263170, 68720263170, 68720263170, 68720263170, 68720263170, 68720263170, 68720263170, 68720263170, 68720263170, 68720263170,68720263170, 68720263170, 68720263170, 68720263170, 68720263170, 68720263170, 68720263170, 68720263170, 68720263170, 68720263170, 68720263170, 68720263170, 68720263170, 68720263170, 68720263170, 68720263170, 68720263170, 68720263170, 68720263170, 68720263170, 68720263170, 68720263170, 68720263170, 68720263170, 68720263170, 68720263170, 68720263170, 68720263170, 68720263170, 68720263170, 68720263170, 68720263170, 68720263170, 68720263170, 68720263170, 68720263170, 68720263170, 68720263170, 68720263170, 68720263170, 68720263170, 68720263170, 68720263170, 68720263170, 68720263170, 68720263170, 68720263170, 68720263170, 68720263170, 68720263170, 68720263170, 68720263170, 68720263170, 68720263170, 68720263170, 68720263170, 68720263170, 68720263170, 68720263170, 68720263170, 68720263170, 68720263170, 68720263170, 68720263170,68720263170, 68720263170, 68720263170, 68720263170, 68720263170, 68720263170, 68720263170, 68720263170, 68720263170, 68720263170, 68720263170, 68720263170, 68720263170, 68720263170, 68720263170, 68720263170, 68720263170, 68720263170, 68720263170, 68720263170, 68720263170, 68720263170, 68720263170, 68720263170, 68720263170, 68720263170, 68720263170, 68720263170, 68720263170, 68720263170, 68720263170, 68720263170, 68720263170, 68720263170, 68720263170, 68720263170, 68720263170, 68720263170, 68720263170, 68720263170, 68720263170, 68720263170, 68720263170, 68720263170, 68720263170, 68720263170, 68720263170, 68720263170, 68720263170, 68720263170, 68720263170, 68720263170, 68720263170, 68720263170, 68720263170, 68720263170, 68720263170, 68720263170, 68720263170, 68720263170, 68720263170, 68720263170, 68720263170, 68720263170,68720263170, 68720263170, 68720263170, 68720263170, 68720263170, 68720263170, 68720263170, 68720263170, 68720263170, 68720263170, 68720263170, 68720263170, 68720263170, 68720263170, 68720263170, 68720263170, 68720263170, 68720263170, 68720263170, 68720263170, 68720263170, 68720263170, 68720263170, 68720263170, 68720263170, 68720263170, 68720263170, 68720263170, 68720263170, 68720263170, 68720263170, 68720263170, 68720263170, 68720263170, 68720263170, 68720263170, 68720263170, 68720263170, 68720263170, 68720263170, 68720263170, 68720263170, 68720263170, 68720263170, 68720263170, 68720263170, 68720263170, 68720263170, 68720263170, 68720263170, 68720263170, 68720263170, 68720263170, 68720263170, 68720263170, 68720263170, 68720263170, 68720263170, 68720263170, 68720263170, 68720263170, 68720263170, 68720263170, 68720263170,68720263170, 68720263170, 68720263170, 68720263170, 68720263170, 68720263170, 68720263170, 68720263170, 68720263170, 68720263170, 68720263170, 68720263170, 68720263170, 68720263170, 68720263170, 68720263170, 68720263170, 68720263170, 68720263170, 68720263170, 68720263170, 68720263170, 68720263170, 68720263170, 68720263170, 68720263170, 68720263170, 68720263170, 68720263170, 68720263170, 68720263170, 68720263170, 68720263170, 68720263170, 68720263170, 68720263170, 68720263170, 68720263170, 68720263170, 68720263170, 68720263170, 68720263170, 68720263170, 68720263170, 68720263170, 68720263170, 68720263170, 68720263170, 68720263170, 68720263170, 68720263170, 68720263170, 68720263170, 68720263170, 68720263170, 68720263170, 68720263170, 68720263170, 68720263170, 68720263170, 68720263170, 68720263170, 68720263170, 68720263170,68720263170, 68720263170, 68720263170, 68720263170, 68720263170, 68720263170, 68720263170, 68720263170, 68720263170, 68720263170, 68720263170, 68720263170, 68720263170, 68720263170, 68720263170, 68720263170, 68720263170, 68720263170, 68720263170, 68720263170, 68720263170, 68720263170, 68720263170, 68720263170, 68720263170, 68720263170, 68720263170, 68720263170, 68720263170, 68720263170, 68720263170, 68720263170, 68720263170, 68720263170, 68720263170, 68720263170, 68720263170, 68720263170, 68720263170, 68720263170, 68720263170, 68720263170, 68720263170, 68720263170, 68720263170, 68720263170, 68720263170, 68720263170, 68720263170, 68720263170, 68720263170, 68720263170, 68720263170, 68720263170, 68720263170, 68720263170, 68720263170, 68720263170, 68720263170, 68720263170, 68720263170, 68720263170, 68720263170, 68720263170,68720263170, 68720263170, 68720263170, 68720263170, 68720263170, 68720263170, 68720263170, 68720263170, 68720263170, 68720263170, 68720263170, 68720263170, 68720263170, 68720263170, 68720263170, 68720263170, 68720263170, 68720263170, 68720263170, 68720263170, 68720263170, 68720263170, 68720263170, 68720263170, 68720263170, 68720263170, 68720263170, 68720263170, 68720263170, 68720263170, 68720263170, 68720263170, 68720263170, 68720263170, 68720263170, 68720263170, 68720263170, 68720263170, 68720263170, 68720263170, 68720263170, 68720263170, 68720263170, 68720263170, 68720263170, 68720263170, 68720263170, 68720263170, 68720263170, 68720263170, 68720263170, 68720263170, 68720263170, 68720263170, 68720263170, 68720263170, 68720263170, 68720263170, 68720263170, 68720263170, 68720263170, 68720263170, 68720263170, 68720263170,68720263170, 68720263170, 68720263170, 68720263170, 68720263170, 68720263170, 68720263170, 68720263170, 68720263170, 68720263170, 68720263170, 68720263170, 68720263170, 68720263170, 68720263170, 68720263170, 68720263170, 68720263170, 68720263170, 68720263170, 68720263170, 68720263170, 68720263170, 68720263170, 68720263170, 68720263170, 68720263170, 68720263170, 68720263170, 68720263170, 68720263170, 68720263170, 68720263170, 68720263170, 68720263170, 68720263170, 68720263170, 68720263170, 68720263170, 68720263170, 68720263170, 68720263170, 68720263170, 68720263170, 68720263170, 68720263170, 68720263170, 68720263170, 68720263170, 68720263170, 68720263170, 68720263170, 68720263170, 68720263170, 68720263170, 68720263170, 68720263170, 68720263170, 68720263170, 68720263170, 68720263170, 68720263170, 68720263170, 68720263170,68720263170, 68720263170, 68720263170, 68720263170, 68720263170, 68720263170, 68720263170, 68720263170, 68720263170, 68720263170, 68720263170, 68720263170, 68720263170, 68720263170, 68720263170, 68720263170, 68720263170, 68720263170, 68720263170, 68720263170, 68720263170, 68720263170, 68720263170, 68720263170, 68720263170, 68720263170, 68720263170, 68720263170, 68720263170, 68720263170, 68720263170, 68720263170, 68720263170, 68720263170, 68720263170, 68720263170, 68720263170, 68720263170, 68720263170, 68720263170, 68720263170, 68720263170, 68720263170, 68720263170, 68720263170, 68720263170, 68720263170, 68720263170, 68720263170, 68720263170, 68720263170, 68720263170, 68720263170, 68720263170, 68720263170, 68720263170, 68720263170, 68720263170, 68720263170, 68720263170, 68720263170, 68720263170, 68720263170, 68720263170,68720263170, 68720263170, 68720263170, 68720263170, 68720263170, 68720263170, 68720263170, 68720263170, 68720263170, 68720263170, 68720263170, 68720263170, 68720263170, 68720263170, 68720263170, 68720263170, 68720263170, 68720263170, 68720263170, 68720263170, 68720263170, 68720263170, 68720263170, 68720263170, 68720263170, 68720263170, 68720263170, 68720263170, 68720263170, 68720263170, 68720263170, 68720263170, 68720263170, 68720263170, 68720263170, 68720263170, 68720263170, 68720263170, 68720263170, 68720263170, 68720263170, 68720263170, 68720263170, 68720263170, 68720263170, 68720263170, 68720263170, 68720263170, 68720263170, 68720263170, 68720263170, 68720263170, 68720263170, 68720263170, 68720263170, 68720263170, 68720263170, 68720263170, 68720263170, 68720263170, 68720263170, 68720263170, 68720263170, 68720263170,68720263170, 68720263170, 68720263170, 68720263170, 68720263170, 68720263170, 68720263170, 68720263170, 68720263170, 68720263170, 68720263170, 68720263170, 68720263170, 68720263170, 68720263170, 68720263170, 68720263170, 68720263170, 68720263170, 68720263170, 68720263170, 68720263170, 68720263170, 68720263170, 68720263170, 68720263170, 68720263170, 68720263170, 68720263170, 68720263170, 68720263170, 68720263170, 68720263170, 68720263170, 68720263170, 68720263170, 68720263170, 68720263170, 68720263170, 68720263170, 68720263170, 68720263170, 68720263170, 68720263170, 68720263170, 68720263170, 68720263170, 68720263170, 68720263170, 68720263170, 68720263170, 68720263170, 68720263170, 68720263170, 68720263170, 68720263170, 68720263170, 68720263170, 68720263170, 68720263170, 68720263170, 68720263170, 68720263170, 68720263170,68720263170, 68720263170, 68720263170, 68720263170, 68720263170, 68720263170, 68720263170, 68720263170, 68720263170, 68720263170, 68720263170, 68720263170, 68720263170, 68720263170, 68720263170, 68720263170, 68720263170, 68720263170, 68720263170, 68720263170, 68720263170, 68720263170, 68720263170, 68720263170, 68720263170, 68720263170, 68720263170, 68720263170, 68720263170, 68720263170, 68720263170, 68720263170, 68720263170, 68720263170, 68720263170, 68720263170, 68720263170, 68720263170, 68720263170, 68720263170, 68720263170, 68720263170, 68720263170, 68720263170, 68720263170, 68720263170, 68720263170, 68720263170, 68720263170, 68720263170, 68720263170, 68720263170, 68720263170, 68720263170, 68720263170, 68720263170, 68720263170, 68720263170, 68720263170, 68720263170, 68720263170, 68720263170, 68720263170, 68720263170,68720263170, 68720263170, 68720263170, 68720263170, 68720263170, 68720263170, 68720263170, 68720263170, 68720263170, 68720263170, 68720263170, 68720263170, 68720263170, 68720263170, 68720263170, 68720263170, 68720263170, 68720263170, 68720263170, 68720263170, 68720263170, 68720263170, 68720263170, 68720263170, 68720263170, 68720263170, 68720263170, 68720263170, 68720263170, 68720263170, 68720263170, 68720263170, 68720263170, 68720263170, 68720263170, 68720263170, 68720263170, 68720263170, 68720263170, 68720263170, 68720263170, 68720263170, 68720263170, 68720263170, 68720263170, 68720263170, 68720263170, 68720263170, 68720263170, 68720263170, 68720263170, 68720263170, 68720263170, 68720263170, 68720263170, 68720263170, 68720263170, 68720263170, 68720263170, 68720263170, 68720263170, 68720263170, 68720263170, 68720263170,68720263170, 68720263170, 68720263170, 68720263170, 68720263170, 68720263170, 68720263170, 68720263170, 68720263170, 68720263170, 68720263170, 68720263170, 68720263170, 68720263170, 68720263170, 68720263170, 68720263170, 68720263170, 68720263170, 68720263170, 68720263170, 68720263170, 68720263170, 68720263170, 68720263170, 68720263170, 68720263170, 68720263170, 68720263170, 68720263170, 68720263170, 68720263170, 68720263170, 68720263170, 68720263170, 68720263170, 68720263170, 68720263170, 68720263170, 68720263170, 68720263170, 68720263170, 68720263170, 68720263170, 68720263170, 68720263170, 68720263170, 68720263170, 68720263170, 68720263170, 68720263170, 68720263170, 68720263170, 68720263170, 68720263170, 68720263170, 68720263170, 68720263170, 68720263170, 68720263170, 68720263170, 68720263170, 68720263170, 68720263170,68720263170, 68720263170, 68720263170, 68720263170, 68720263170, 68720263170, 68720263170, 68720263170, 68720263170, 68720263170, 68720263170, 68720263170, 68720263170, 68720263170, 68720263170, 68720263170, 68720263170, 68720263170, 68720263170, 68720263170, 68720263170, 68720263170, 68720263170, 68720263170, 68720263170, 68720263170, 68720263170, 68720263170, 68720263170, 68720263170, 68720263170, 68720263170, 68720263170, 68720263170, 68720263170, 68720263170, 68720263170, 68720263170, 68720263170, 68720263170, 68720263170, 68720263170, 68720263170, 68720263170, 68720263170, 68720263170, 68720263170, 68720263170, 68720263170, 68720263170, 68720263170, 68720263170, 68720263170, 68720263170, 68720263170, 68720263170, 68720263170, 68720263170, 68720263170, 68720263170, 68720263170, 68720263170, 68720263170, 68720263170,68720263170, 68720263170, 68720263170, 68720263170, 68720263170, 68720263170, 68720263170, 68720263170, 68720263170, 68720263170, 68720263170, 68720263170, 68720263170, 68720263170, 68720263170, 68720263170, 68720263170, 68720263170, 68720263170, 68720263170, 68720263170, 68720263170, 68720263170, 68720263170, 68720263170, 68720263170, 68720263170, 68720263170, 68720263170, 68720263170, 68720263170, 68720263170, 68720263170, 68720263170, 68720263170, 68720263170, 68720263170, 68720263170, 68720263170, 68720263170, 68720263170, 68720263170, 68720263170, 68720263170, 68720263170, 68720263170, 68720263170, 68720263170, 68720263170, 68720263170, 68720263170, 68720263170, 68720263170, 68720263170, 68720263170, 68720263170, 68720263170, 68720263170, 68720263170, 68720263170, 68720263170, 68720263170, 68720263170, 68720263170,68720263170, 68720263170, 68720263170, 68720263170, 68720263170, 68720263170, 68720263170, 68720263170, 68720263170, 68720263170, 68720263170, 68720263170, 68720263170, 68720263170, 68720263170, 68720263170, 68720263170, 68720263170, 68720263170, 68720263170, 68720263170, 68720263170, 68720263170, 68720263170, 68720263170, 68720263170, 68720263170, 68720263170, 68720263170, 68720263170, 68720263170, 68720263170, 68720263170, 68720263170, 68720263170, 68720263170, 68720263170, 68720263170, 68720263170, 68720263170, 68720263170, 68720263170, 68720263170, 68720263170, 68720263170, 68720263170, 68720263170, 68720263170, 68720263170, 68720263170, 68720263170, 68720263170, 68720263170, 68720263170, 68720263170, 68720263170, 68720263170, 68720263170, 68720263170, 68720263170, 68720263170, 68720263170, 68720263170, 68720263170
;