memory_initialization_radix=10;
68720001025, 68720001025, 68720001025, 68720001025, 68720001025, 68720001025, 68720001025, 68720001025, 68720001025, 68720001025, 68720001025, 68720001025, 68720001025, 68720001025, 68720001025, 68720001025, 68720001025, 68720001025, 68720001025, 68720001025, 68720001025, 68720001025, 68720001025, 68720001025, 68720001025, 68720001025, 68720001025, 68720001025, 68720001025, 68720001025, 68720001025, 68720001025, 68720001025, 68720001025, 68720001025, 68720001025, 68720001025, 68720001025, 68720001025, 68720001025, 68720001025, 68720001025, 68720001025, 68720001025, 68720001025, 68720001025, 68720001025, 68720001025, 68720001025, 68720001025, 68720001025, 68720001025, 68720001025, 68720001025, 68720001025, 68720001025, 68720001025, 68720001025, 68720001025, 68720001025, 68720001025, 68720001025, 68720001025, 68720001025, 68720001025, 68720001025, 68720001025, 68720001025, 68720001025, 68720001025, 68720001025, 68720001025, 68720001025, 68720001025, 68720001025, 68720001025, 68720001025, 68720001025, 68720001025, 68720001025, 68720001025, 68720001025, 68720001025, 68720001025, 68720001025, 68720001025, 68720001025, 68720001025, 68720001025, 68720001025, 68720001025, 68720001025, 68720001025, 68720001025, 68720001025, 68720001025, 68720001025, 68720001025, 68720001025, 68720001025, 68720001025, 68720001025, 68720001025, 68720001025, 68720001025, 68720001025, 68720001025, 68720001025, 68720001025, 68720001025, 68720001025, 68720001025, 68720001025, 68720001025, 68720001025, 68720001025, 68720001025, 68720001025, 68720001025, 68720001025, 68720001025, 68720001025, 68720001025, 68720001025, 68720001025, 68720001025, 68720001025, 68720001025, 68720001025, 68720001025, 68720001025, 68720001025, 68720001025, 68720001025, 68720001025, 68720001025, 68720001025, 68720001025, 68720001025, 68720001025, 68720001025, 68720001025, 68720001025, 68720001025, 68720001025, 68720001025, 68720001025, 68720001025, 68720001025, 68720001025, 68720001025, 68720001025, 68720001025, 68720001025, 68720001025, 68720001025, 68720001025, 68720001025, 68720001025, 68720001025, 68720001025, 68720001025, 68720001025, 68720001025, 68720001025, 68720001025, 68720001025, 68720001025, 68720001025, 68720001025, 68720001025, 68720001025, 68720001025, 68720001025, 68720001025, 68720001025, 68720001025, 68720001025, 68720001025, 68720001025, 68720001025, 68720001025, 68720001025, 68720001025, 68720001025, 68720001025, 68720001025, 68720001025, 68720001025, 68720001025, 68720001025, 68720001025, 68720001025, 68720001025, 68720001025, 68720001025, 68720001025, 68720001025, 68720001025, 68720001025, 68720001025, 68720001025, 68720001025, 68720001025, 68720001025, 68720001025, 68720001025, 68720001025, 68720001025, 68720001025, 68720001025, 68720001025, 68720001025, 68720001025, 68720001025, 68720001025, 68720001025, 68720001025, 68720001025, 68720001025, 68720001025, 68720001025, 68720001025, 68720001025, 68720001025, 68720001025, 68720001025, 68720001025, 68720001025, 68720001025, 68720001025, 68720001025, 68720001025, 68720001025, 68720001025, 68720001025, 68720001025, 68720001025, 68720001025, 68720001025, 68720001025, 68720001025, 68720001025, 68720001025, 68720001025, 68720001025, 68720001025, 68720001025, 68720001025, 68720001025, 68720001025, 68720001025, 68720001025, 68720001025, 68720001025, 68720001025, 68720001025, 68720001025, 68720001025, 68720001025, 68720001025, 68720001025, 68720001025, 68720001025, 68720001025, 68720001025, 68720001025, 68720001025, 68720001025, 68720001025, 68720001025, 68720001025, 68720001025, 68720001025, 68720001025, 68720001025, 68720001025, 68720001025, 68720001025, 68720001025, 68720001025, 68720001025, 68720001025, 68720001025, 68720001025, 68720001025, 68720001025, 68720001025, 68720001025, 68720001025, 68720001025, 68720001025, 68720001025, 68720001025, 68720001025, 68720001025, 68720001025, 68720001025, 68720001025, 68720001025, 68720001025, 68720001025, 68720001025, 68720001025, 68720001025, 68720001025, 68720001025, 68720001025, 68720001025, 68720001025, 68720001025, 68720001025, 68720001025, 68720001025, 68720001025, 68720001025, 68720001025, 68720001025, 68720001025, 68720001025, 68720001025, 68720001025, 68720001025, 68720001025, 68720001025, 68720001025, 68720001025, 68720001025, 68720001025, 68720001025, 68720001025, 68720001025, 68720001025, 68720001025, 68720001025, 68720001025, 68720001025, 68720001025, 68720001025, 68720001025, 68720001025, 68720001025, 68720001025, 68720001025, 68720001025, 68720001025, 68720001025, 68720001025, 68720001025, 68720001025, 68720001025, 68720001025, 68720001025, 68720001025, 68720001025, 68720001025, 68720001025, 68720001025, 68720001025, 68720001025, 68720001025, 68720001025, 68720001025, 68720001025, 68720001025, 68720001025, 68720001025, 68720001025, 68720001025, 68720001025, 68720001025, 68720001025, 68720001025, 68720001025, 68720001025, 68720001025, 68720001025, 68720001025, 68720001025, 68720001025, 68720001025, 68720001025, 68720001025, 68720001025, 68720001025, 68720001025, 68720001025, 68720001025, 68720001025, 68720001025, 68720001025, 68720001025, 68720001025, 68720001025, 68720001025, 68720001025, 68720001025, 68720001025, 68720001025, 68720001025, 68720001025, 68720001025, 68720001025, 68720001025, 68720001025, 68720001025, 68720001025, 68720001025, 68720001025, 68720001025, 68720001025, 68720001025, 68720001025, 68720001025, 68720001025, 68720001025, 68720001025, 68720001025, 68720001025, 68720001025, 68720001025, 68720001025, 68720001025, 68720001025, 68720001025, 68720001025, 68720001025, 68720001025, 68720001025, 68720001025, 68720001025, 68720001025, 68720001025, 68720001025, 68720001025, 68720001025, 68720001025, 68720001025, 68720001025, 68720001025, 68720001025, 68720001025, 68720001025, 68720001025, 68720001025, 68720001025, 68720001025, 68720001025, 68720001025, 68720001025, 68720001025, 68720001025, 68720001025, 68720001025, 68720001025, 68720001025, 68720001025, 68720001025, 68720001025, 68720001025, 68720001025, 68720001025, 68720001025, 68720001025, 68720001025, 68720001025, 68720001025, 68720001025, 68720001025, 68720001025, 68720001025, 68720001025, 68720001025, 68720001025, 68720001025, 68720001025, 68720001025, 68720001025, 68720001025, 68720001025, 68720001025, 68720001025, 68720001025, 68720001025, 68720001025, 68720001025, 68720001025, 68720001025, 68720001025, 68720001025, 68720001025, 68720001025, 68720001025, 68720001025, 68720001025, 68720001025, 68720001025, 68720001025, 68720001025, 68720001025, 68720001025, 68720001025, 68720001025, 68720001025, 68720001025, 68720001025, 68720001025, 68720001025, 68720001025, 68720001025, 68720001025, 68720001025, 68720001025, 68720001025, 68720001025, 68720001025, 68720001025, 68720001025, 68720001025, 68720001025, 68720001025, 68720001025, 68720001025, 68720001025, 68720001025, 68720001025, 68720001025, 68720001025, 68720001025, 68720001025, 68720001025, 68720001025, 68720001025, 68720001025, 68720001025, 68720001025, 68720001025, 68720001025, 68720001025, 68720001025, 68720001025, 68720001025, 68720001025, 68720001025, 68720001025, 68720001025, 68720001025, 68720001025, 68720001025, 68720001025, 68720001025, 68720001025, 68720001025, 68720001025, 68720001025, 68720001025, 68720001025, 68720001025, 68720001025, 68720001025, 68720001025, 68720001025, 68720001025, 68720001025, 68720001025, 68720001025, 68720001025, 68720001025, 68720001025, 68720001025, 68720001025, 68720001025, 68720001025, 68720001025, 68720001025, 68720001025, 68720001025, 68720001025, 68720001025, 68720001025, 68720001025, 68720001025, 68720001025, 68720001025, 68720001025, 68720001025, 68720001025, 68720001025, 68720001025, 68720001025, 68720001025, 68720001025, 68720001025, 68720001025, 68720001025, 68720001025, 68720001025, 68720001025, 68720001025, 68720001025, 68720001025, 68720001025, 68720001025, 68720001025, 68720001025, 68720001025, 68720001025, 68720001025, 68720001025, 68720001025, 68720001025, 68720001025, 68720001025, 68720001025, 68720001025, 68720001025, 68720001025, 68720001025, 68720001025, 68720001025, 68720001025, 68720001025, 68720001025, 68720001025, 68720001025, 68720001025, 68720001025, 68720001025, 68720001025, 68720001025, 68720001025, 68720001025, 68720001025, 68720001025, 68720001025, 68720001025, 68720001025, 68720001025, 68720001025, 68720001025, 68720001025, 68720001025, 68720001025, 68720001025, 68720001025, 68720001025, 68720001025, 68720001025, 68720001025, 68720001025, 68720001025, 68720001025, 68720001025, 68720001025, 68720001025, 68720001025, 68720001025, 68720001025, 68720001025, 68720001025, 68720001025, 68720001025, 68720001025, 68720001025, 68720001025, 68720001025, 68720001025, 68720001025, 68720001025, 68720001025, 68720001025, 68720001025, 68720001025, 68720001025, 68720001025, 68720001025, 68720001025, 68720001025, 68720001025, 68720001025, 68720001025, 68720001025, 68720001025, 68720001025, 68720001025, 68720001025, 68720001025, 68720001025, 68720001025, 68720001025, 68720001025, 68720001025, 68720001025, 68720001025, 68720001025, 68720001025, 68720001025, 68720001025, 68720001025, 68720001025, 68720001025, 68720001025, 68720001025, 68720001025, 68720001025, 68720001025, 68720001025, 68720001025, 68720001025, 68720001025, 68720001025, 68720001025, 68720001025, 68720001025, 68720001025, 68720001025, 68720001025, 68720001025, 68720001025, 68720001025, 68720001025, 68720001025, 68720001025, 68720001025, 68720001025, 68720001025, 68720001025, 68720001025, 68720001025, 68720001025, 68720001025, 68720001025, 68720001025, 68720001025, 68720001025, 68720001025, 68720001025, 68720001025, 68720001025, 68720001025, 68720001025, 68720001025, 68720001025, 68720001025, 68720001025, 68720001025, 68720001025, 68720001025, 68720001025, 68720001025, 68720001025, 68720001025, 68720001025, 68720001025, 68720001025, 68720001025, 68720001025, 68720001025, 68720001025, 68720001025, 68720001025, 68720001025, 68720001025, 68720001025, 68720001025, 68720001025, 68720001025, 68720001025, 68720001025, 68720001025, 68720001025, 68720001025, 68720001025, 68720001025, 68720001025, 68720001025, 68720001025, 68720001025, 68720001025, 68720001025, 68720001025, 68720001025, 68720001025, 68720001025, 68720001025, 68720001025, 68720001025, 68720001025, 68720001025, 68720001025, 68720001025, 68720001025, 68720001025, 68720001025, 68720001025, 68720001025, 68720001025, 68720001025, 68720001025, 68720001025, 68720001025, 68720001025, 68720001025, 68720001025, 68720001025, 68720001025, 68720001025, 68720001025, 68720001025, 68720001025, 68720001025, 68720001025, 68720001025, 68720001025, 68720001025, 68720001025, 68720001025, 68720001025, 68720001025, 68720001025, 68720001025, 68720001025, 68720001025, 68720001025, 68720001025, 68720001025, 68720001025, 68720001025, 68720001025, 68720001025, 68720001025, 68720001025, 68720001025, 68720001025, 68720001025, 68720001025, 68720001025, 68720001025, 68720001025, 68720001025, 68720001025, 68720001025, 68720001025, 68720001025, 68720001025, 68720001025, 68720001025, 68720001025, 68720001025, 68720001025, 68720001025, 68720001025, 68720001025, 68720001025, 68720001025, 68720001025, 68720001025, 68720001025, 68720001025, 68720001025, 68720001025, 68720001025, 68720001025, 68720001025, 68720001025, 68720001025, 68720001025, 68720001025, 68720001025, 68720001025, 68720001025, 68720001025, 68720001025, 68720001025, 68720001025, 68720001025, 68720001025, 68720001025, 68720001025, 68720001025, 68720001025, 68720001025, 68720001025, 68720001025, 68720001025, 68720001025, 68720001025, 68720001025, 68720001025, 68720001025, 68720001025, 68720001025, 68720001025, 68720001025, 68720001025, 68720001025, 68720001025, 68720001025, 68720001025, 68720001025, 68720001025, 68720001025, 68720001025, 68720001025, 68720001025, 68720001025, 68720001025, 68720001025, 68720001025, 68720001025, 68720001025, 68720001025, 68720001025, 68720001025, 68720001025, 68720001025, 68720001025, 68720001025, 68720001025, 68720001025, 68720001025, 68720001025, 68720001025, 68720001025, 68720001025, 68720001025, 68720001025, 68720001025, 68720001025, 68720001025, 68720001025, 68720001025, 68720001025, 68720001025, 68720001025, 68720001025, 68720001025, 68720001025, 68720001025, 68720001025, 68720001025, 68720001025, 68720001025, 68720001025, 68720001025, 68720001025, 68720001025, 68720001025, 68720001025, 68720001025, 68720001025, 68720001025, 68720001025, 68720001025, 68720001025, 68720001025, 68720001025, 68720001025, 68720001025, 68720001025, 68720001025, 68720001025, 68720001025, 68720001025, 68720001025, 68720001025, 68720001025, 68720001025, 68720001025, 68720001025, 68720001025, 68720001025, 68720001025, 68720001025, 68720001025, 68720001025, 68720001025, 68720001025, 68720001025, 68720001025, 68720001025, 68720001025, 68720001025, 68720001025, 68720001025, 68720001025, 68720001025, 68720001025, 68720001025, 68720001025, 68720001025, 68720001025, 68720001025, 68720001025, 68720001025, 68720001025, 68720001025, 68720001025, 68720001025, 68720001025, 68720001025, 68720001025, 68720001025, 68720001025, 68720001025, 68720001025, 68720001025, 68720001025, 68720001025, 68720001025, 68720001025, 68720001025, 68720001025, 68720001025, 68720001025, 68720001025, 68720001025, 68720001025, 68720001025, 68720001025, 68720001025, 68720001025, 68720001025, 68720001025, 68720001025, 68720001025, 68720001025, 68720001025, 68720001025, 68720001025, 68720001025, 68720001025, 68720001025, 68720001025, 68720001025, 68720001025, 68720001025, 68720001025, 68720001025, 68720001025, 68720001025, 68720001025, 68720001025, 68720001025, 68720001025, 68720001025, 68720001025, 68720001025, 68720001025, 68720001025, 68720001025, 68720001025, 68720001025, 68720001025, 68720001025, 68720001025, 68720001025, 68720001025, 68720001025, 68720001025, 68720001025, 68720001025, 68720001025, 68720001025, 68720001025, 68720001025, 68720001025, 68720001025, 68720001025, 68720001025, 68720001025, 68720001025, 68720001025, 68720001025, 68720001025, 68720001025, 68720001025, 68720001025, 68720001025, 68720001025, 68720001025, 68720001025, 68720001025, 68720001025, 68720001025, 68720001025, 68720001025, 68720001025, 68720001025, 68720001025, 68720001025, 68720001025, 68720001025, 68720001025, 68720001025, 68720001025, 68720001025, 68720001025, 68720001025, 68720001025, 68720001025, 68720001025, 68720001025, 68720001025, 68720001025, 68720001025, 68720001025, 68720001025, 68720001025, 68720001025, 68720001025, 68720001025, 68720001025, 68720001025, 68720001025, 68720001025, 68720001025, 68720001025, 68720001025, 68720001025, 68720001025, 68720001025, 68720001025, 68720001025, 68720001025, 68720001025, 68720001025, 68720001025, 68720001025, 68720001025, 68720001025, 68720001025, 68720001025, 68720001025, 68720001025, 68720001025, 68720001025, 68720001025, 68720001025, 68720001025, 68720001025, 68720001025, 68720001025, 68720001025, 68720001025, 68720001025, 68720001025, 68720001025, 68720001025, 68720001025, 68720001025, 68720001025, 68720001025, 68720001025, 68720001025, 68720001025, 68720001025, 68720001025, 68720001025, 68720001025, 68720001025, 68720001025, 68720001025, 68720001025, 68720001025, 68720001025, 68720001025, 68720001025, 68720001025, 68720001025, 68720001025, 68720001025, 68720001025, 68720001025, 68720001025, 68720001025, 68720001025, 68720001025, 68720001025, 68720001025, 68720001025, 68720001025, 68720001025, 68720001025, 68720001025, 68720001025, 68720001025, 68720001025, 68720001025, 68720001025, 68720001025, 68720001025, 68720001025, 68720001025, 68720001025, 68720001025, 68720001025, 68720001025, 68720001025, 68720001025, 68720001025, 68720001025, 68720001025, 68720001025, 68720001025, 68720001025, 68720001025, 68720001025, 68720001025, 68720001025, 68720001025, 68720001025, 68720001025, 68720001025, 68720001025, 68720001025, 68720001025, 68720001025, 68720001025, 68720001025, 68720001025, 68720001025, 68720001025, 68720001025, 68720001025, 68720001025, 68720001025, 68720001025, 68720001025, 68720001025, 68720001025, 68720001025, 68720001025, 68720001025, 68720001025, 68720001025, 68720001025, 68720001025, 68720001025, 68720001025, 68720001025, 68720001025, 68720001025, 68720001025, 68720001025, 68720001025, 68720001025, 68720001025, 68720001025, 68720001025, 68720001025, 68720001025, 68720001025, 68720001025, 68720001025, 68720001025, 68720001025, 68720001025, 68720001025, 68720001025, 68720001025, 68720001025, 68720001025, 68720001025, 68720001025, 68720001025, 68720001025, 68720001025, 68720001025, 68720001025, 68720001025, 68720001025, 68720001025, 68720001025, 68720001025, 68720001025, 68720001025, 68720001025, 68720001025, 68720001025, 68720001025, 68720001025, 68720001025, 68720001025, 68720001025, 68720001025, 68720001025, 68720001025, 68720001025, 68720001025, 68720001025, 68720001025, 68720001025, 68720001025, 68720001025, 68720001025, 68720001025, 68720001025, 68720001025, 68720001025, 68720001025, 68720001025, 68720001025, 68720001025, 68720001025, 68720001025, 68720001025, 68720001025, 68720001025, 68720001025, 68720001025, 68720001025, 68720001025, 68720001025, 68720001025, 68720001025, 68720001025, 68720001025, 68720001025, 68720001025, 68720001025, 68720001025, 68720001025, 68720001025, 68720001025, 68720001025, 68720001025, 68720001025, 68720001025, 68720001025, 68720001025, 68720001025, 68720001025, 68720001025, 68720001025, 68720001025, 68720001025, 68720001025, 68720001025, 68720001025, 68720001025, 68720001025, 68720001025, 68720001025, 68720001025, 68720001025, 68720001025, 68720001025, 68720001025, 68720001025, 68720001025, 68720001025, 68720001025, 68720001025, 68720001025, 68720001025, 68720001025, 68720001025, 68720001025, 68720001025, 68720001025, 68720001025, 68720001025, 68720001025, 68720001025, 68720001025, 68720001025, 68720001025, 68720001025, 68720001025, 68720001025, 68720001025, 68720001025, 68720001025, 68720001025, 68720001025, 68720001025, 68720001025, 68720001025, 68720001025, 68720001025, 68720001025, 68720001025, 68720001025, 68720001025, 68720001025, 68720001025, 68720001025, 68720001025, 68720001025, 68720001025, 68720001025, 68720001025, 68720001025, 68720001025, 68720001025, 68720001025, 68720001025, 68720001025, 68720001025, 68720001025, 68720001025, 68720001025, 68720001025, 68720001025, 68720001025, 68720001025, 68720001025, 68720001025, 68720001025, 68720001025, 68720001025, 68720001025, 68720001025, 68720001025, 68720001025, 68720001025, 68720001025, 68720001025, 68720001025, 68720001025, 68720001025, 68720001025, 68720001025, 68720001025, 68720001025, 68720001025, 68720001025, 68720001025, 68720001025, 68720001025, 68720001025, 68720001025, 68720001025, 68720001025, 68720001025, 68720001025, 68720001025, 68720001025, 68720001025, 68720001025, 68720001025, 68720001025, 68720001025, 68720001025, 68720001025, 68720001025, 68720001025, 68720001025, 68720001025, 68720001025, 68720001025, 68720001025, 68720001025, 68720001025, 68720001025, 68720001025, 68720001025, 68720001025, 68720001025, 68720001025, 68720001025, 68720001025, 68720001025, 68720001025, 68720001025, 68720001025, 68720001025, 68720001025, 68720001025, 68720001025, 68720001025, 68720001025, 68720001025, 68720001025, 68720001025, 68720001025, 68720001025, 68720001025, 68720001025, 68720001025, 68720001025, 68720001025, 68720001025, 68720001025, 68720001025, 68720001025, 68720001025, 68720001025, 68720001025, 68720001025, 68720001025, 68720001025, 68720001025, 68720001025, 68720001025, 68720001025, 68720001025, 68720001025, 68720001025, 68720001025, 68720001025, 68720001025, 68720001025, 68720001025, 68720001025, 68720001025, 68720001025, 68720001025, 68720001025, 68720001025, 68720001025, 68720001025, 68720001025, 68720001025, 68720001025, 68720001025, 68720001025, 68720001025, 68720001025, 68720001025, 68720001025, 68720001025, 68720001025, 68720001025, 68720001025, 68720001025, 68720001025, 68720001025, 68720001025, 68720001025, 68720001025, 68720001025, 68720001025, 68720001025, 68720001025, 68720001025, 68720001025, 68720001025, 68720001025, 68720001025, 68720001025, 68720001025, 68720001025, 68720001025, 68720001025, 68720001025, 68720001025, 68720001025, 68720001025, 68720001025, 68720001025, 68720001025, 68720001025, 68720001025, 68720001025, 68720001025, 68720001025, 68720001025, 68720001025, 68720001025, 68720001025, 68720001025, 68720001025, 68720001025, 68720001025, 68720001025, 68720001025, 68720001025, 68720001025, 68720001025, 68720001025, 68720001025, 68720001025, 68720001025, 68720001025, 68720001025, 68720001025, 68720001025, 68720001025, 68720001025, 68720001025, 68720001025, 68720001025, 68720001025, 68720001025, 68720001025, 68720001025, 68720001025, 68720001025, 68720001025, 68720001025, 68720001025, 68720001025, 68720001025, 68720001025, 68720001025, 68720001025, 68720001025, 68720001025, 68720001025, 68720001025, 68720001025, 68720001025, 68720001025, 68720001025, 68720001025, 68720001025, 68720001025, 68720001025, 68720001025, 68720001025, 68720001025, 68720001025, 68720001025, 68720001025, 68720001025, 68720001025, 68720001025, 68720001025, 68720001025, 68720001025, 68720001025, 68720001025, 68720001025, 68720001025, 68720001025, 68720001025, 68720001025, 68720001025, 68720001025, 68720001025, 68720001025, 68720001025, 68720001025, 68720001025, 68720001025, 68720001025, 68720001025, 68720001025, 68720001025, 68720001025, 68720001025, 68720001025, 68720001025, 68720001025, 68720001025, 68720001025, 68720001025, 68720001025, 68720001025, 68720001025, 68720001025, 68720001025, 68720001025, 68720001025, 68720001025, 68720001025, 68720001025, 68720001025, 68720001025, 68720001025, 68720001025, 68720001025, 68720001025, 68720001025, 68720001025, 68720001025, 68720001025, 68720001025, 68720001025, 68720001025, 68720001025, 68720001025, 68720001025, 68720001025, 68720001025, 68720001025, 68720001025, 68720001025, 68720001025, 68720001025, 68720001025, 68720001025, 68720001025, 68720001025, 68720001025, 68720001025, 68720001025, 68720001025, 68720001025, 68720001025, 68720001025, 68720001025, 68720001025, 68720001025, 68720001025, 68720001025, 68720001025, 68720001025, 68720001025, 68720001025, 68720001025, 68720001025, 68720001025, 68720001025, 68720001025, 68720001025, 68720001025, 68720001025, 68720001025, 68720001025, 68720001025, 68720001025, 68720001025, 68720001025, 68720001025, 68720001025, 68720001025, 68720001025, 68720001025, 68720001025, 68720001025, 68720001025, 68720001025, 68720001025, 68720001025, 68720001025, 68720001025, 68720001025, 68720001025, 68720001025, 68720001025, 68720001025, 68720001025, 68720001025, 68720001025, 68720001025, 68720001025, 68720001025, 68720001025, 68720001025, 68720001025, 68720001025, 68720001025, 68720001025, 68720001025, 68720001025, 68720001025, 68720001025, 68720001025, 68720001025, 68720001025, 68720001025, 68720001025, 68720001025, 68720001025, 68720001025, 68720001025, 68720001025, 68720001025, 68720001025, 68720001025, 68720001025, 68720001025, 68720001025, 68720001025, 68720001025, 68720001025, 68720001025, 68720001025, 68720001025, 68720001025, 68720001025, 68720001025, 68720001025, 68720001025, 68720001025, 68720001025, 68720001025, 68720001025, 68720001025, 68720001025, 68720001025, 68720001025, 68720001025, 68720001025, 68720001025, 68720001025, 68720001025, 68720001025, 68720001025, 68720001025, 68720001025, 68720001025, 68720001025, 68720001025, 68720001025, 68720001025, 68720001025, 68720001025, 68720001025, 68720001025, 68720001025, 68720001025, 68720001025, 68720001025, 68720001025, 68720001025, 68720001025, 68720001025, 68720001025, 68720001025, 68720001025, 68720001025, 68720001025, 68720001025, 68720001025, 68720001025, 68720001025, 68720001025, 68720001025, 68720001025, 68720001025, 68720001025, 68720001025, 68720001025, 68720001025, 68720001025, 68720001025, 68720001025, 68720001025, 68720001025, 68720001025, 68720001025, 68720001025, 68720001025, 68720001025, 68720001025, 68720001025, 68720001025, 68720001025, 68720001025, 68720001025, 68720001025, 68720001025, 68720001025, 68720001025, 68720001025, 68720001025, 68720001025, 68720001025, 68720001025, 68720001025, 68720001025, 68720001025, 68720001025, 68720001025, 68720001025, 68720001025, 68720001025, 68720001025, 68720001025, 68720001025, 68720001025, 68720001025, 68720001025, 68720001025, 68720001025, 68720001025, 68720001025, 68720001025, 68720001025, 68720001025, 68720001025, 68720001025, 68720001025, 68720001025, 68720001025, 68720001025, 68720001025, 68720001025, 68720001025, 68720001025, 68720001025, 68720001025, 68720001025, 68720001025, 68720001025, 68720001025, 68720001025, 68720001025, 68720001025, 68720001025, 68720001025, 68720001025, 68720001025, 68720001025, 68720001025, 68720001025, 68720001025, 68720001025, 68720001025, 68720001025, 68720001025, 68720001025, 68720001025, 68720001025, 68720001025, 68720001025, 68720001025, 68720001025, 68720001025, 68720001025, 68720001025, 68720001025, 68720001025, 68720001025, 68720001025, 68720001025, 68720001025, 68720001025, 68720001025, 68720001025, 68720001025, 68720001025, 68720001025, 68720001025, 68720001025, 68720001025, 68720001025, 68720001025, 68720001025, 68720001025, 68720001025, 68720001025, 68720001025, 68720001025, 68720001025, 68720001025, 68720001025, 68720001025, 68720001025, 68720001025, 68720001025, 68720001025, 68720001025, 68720001025, 68720001025, 68720001025, 68720001025, 68720001025, 68720001025, 68720001025, 68720001025, 68720001025, 68720001025, 68720001025, 68720001025, 68720001025, 68720001025, 68720001025, 68720001025, 68720001025, 68720001025, 68720001025, 68720001025, 68720001025, 68720001025, 68720001025, 68720001025, 68720001025, 68720001025, 68720001025, 68720001025, 68720001025, 68720001025, 68720001025, 68720001025, 68720001025, 68720001025, 68720001025, 68720001025, 68720001025, 68720001025, 68720001025, 68720001025, 68720001025, 68720001025, 68720001025, 68720001025, 68720001025, 68720001025, 68720001025, 68720001025, 68720001025, 68720001025, 68720001025, 68720001025, 68720001025, 68720001025, 68720001025, 68720001025, 68720001025, 68720001025, 68720001025, 68720001025, 68720001025, 68720001025, 68720001025, 68720001025, 68720001025, 68720001025, 68720001025, 68720001025, 68720001025, 68720001025, 68720001025, 68720001025, 68720001025, 68720001025, 68720001025, 68720001025, 68720001025, 68720001025, 68720001025, 68720001025, 68720001025, 68720001025, 68720001025, 68720001025, 68720001025, 68720001025, 68720001025, 68720001025, 68720001025, 68720001025, 68720001025, 68720001025, 68720001025, 68720001025, 68720001025, 68720001025, 68720001025, 68720001025, 68720001025, 68720001025, 68720001025, 68720001025, 68720001025, 68720001025, 68720001025, 68720001025, 68720001025, 68720001025, 68720001025, 68720001025, 68720001025, 68720001025, 68720001025, 68720001025, 68720001025, 68720001025, 68720001025, 68720001025, 68720001025, 68720001025, 68720001025, 68720001025, 68720001025, 68720001025, 68720001025, 68720001025, 68720001025, 68720001025, 68720001025, 68720001025, 68720001025, 68720001025, 68720001025, 68720001025, 68720001025, 68720001025, 68720001025, 68720001025, 68720001025, 68720001025, 68720001025, 68720001025, 68720001025, 68720001025, 68720001025, 68720001025, 68720001025, 68720001025, 68720001025, 68720001025, 68720001025, 68720001025, 68720001025, 68720001025, 68720001025, 68720001025, 68720001025, 68720001025, 68720001025, 68720001025, 68720001025, 68720001025, 68720001025, 68720001025, 68720001025, 68720001025, 68720001025, 68720001025, 68720001025, 68720001025, 68720001025, 68720001025, 68720001025, 68720001025, 68720001025, 68720001025, 68720001025, 68720001025, 68720001025, 68720001025, 68720001025, 68720001025, 68720001025, 68720001025, 68720001025, 68720001025, 68720001025, 68720001025, 68720001025, 68720001025, 68720001025, 68720001025, 68720001025, 68720001025, 68720001025, 68720001025, 68720001025, 68720001025, 68720001025, 68720001025, 68720001025, 68720001025, 68720001025, 68720001025, 68720001025, 68720001025, 68720001025, 68720001025, 68720001025, 68720001025, 68720001025, 68720001025, 68720001025, 68720001025, 68720001025, 68720001025, 68720001025, 68720001025, 68720001025, 68720001025, 68720001025, 68720001025, 68720001025, 68720001025, 68720001025, 68720001025, 68720001025, 68720001025, 68720001025, 68720001025, 68720001025, 68720001025, 68720001025, 68720001025, 68720001025, 68720001025, 68720001025, 68720001025, 68720001025, 68720001025, 68720001025, 68720001025, 68720001025, 68720001025, 68720001025, 68720001025, 68720001025, 68720001025, 68720001025, 68720001025, 68720001025, 68720001025, 68720001025, 68720001025, 68720001025, 68720001025, 68720001025, 68720001025, 68720001025, 68720001025, 68720001025, 68720001025, 68720001025, 68720001025, 68720001025, 68720001025, 68720001025, 68720001025, 68720001025, 68720001025, 68720001025, 68720001025, 68720001025, 68720001025, 68720001025, 68720001025, 68720001025, 68720001025, 68720001025, 68720001025, 68720001025, 68720001025, 68720001025, 68720001025, 68720001025, 68720001025, 68720001025, 68720001025, 68720001025, 68720001025, 68720001025, 68720001025, 68720001025, 68720001025, 68720001025, 68720001025, 68720001025, 68720001025, 68720001025, 68720001025, 68720001025, 68720001025, 68720001025, 68720001025, 68720001025, 68720001025, 68720001025, 68720001025, 68720001025, 68720001025, 68720001025, 68720001025, 68720001025, 68720001025, 68720001025, 68720001025, 68720001025, 68720001025, 68720001025, 68720001025, 68720001025, 68720001025, 68720001025, 68720001025, 68720001025, 68720001025, 68720001025, 68720001025, 68720001025, 68720001025, 68720001025, 68720001025, 68720001025, 68720001025, 68720001025, 68720001025, 68720001025, 68720001025, 68720001025, 68720001025, 68720001025, 68720001025, 68720001025, 68720001025, 68720001025, 68720001025, 68720001025, 68720001025, 68720001025, 68720001025, 68720001025, 68720001025, 68720001025, 68720001025, 68720001025, 68720001025, 68720001025, 68720001025, 68720001025, 68720001025, 68720001025, 68720001025, 68720001025, 68720001025, 68720001025, 68720001025, 68720001025, 68720001025, 68720001025, 68720001025, 68720001025, 68720001025, 68720001025, 68720001025, 68720001025, 68720001025, 68720001025, 68720001025, 68720001025, 68720001025, 68720001025, 68720001025, 68720001025, 68720001025, 68720001025, 68720001025, 68720001025, 68720001025, 68720001025, 68720001025, 68720001025, 68720001025, 68720001025, 68720001025, 68720001025, 68720001025, 68720001025, 68720001025, 68720001025, 68720001025, 68720001025, 68720001025, 68720001025, 68720001025, 68720001025, 68720001025, 68720001025, 68720001025, 68720001025, 68720001025, 68720001025, 68720001025, 68720001025, 68720001025, 68720001025, 68720001025, 68720001025, 68720001025, 68720001025, 68720001025, 68720001025, 68720001025, 68720001025, 68720001025, 68720001025, 68720001025, 68720001025, 68720001025, 68720001025, 68720001025, 68720001025, 68720001025, 68720001025, 68720001025, 68720001025, 68720001025, 68720001025, 68720001025, 68720001025, 68720001025, 68720001025, 68720001025, 68720001025, 68720001025, 68720001025, 68720001025, 68720001025, 68720001025, 68720001025, 68720001025, 68720001025, 68720001025, 68720001025, 68720001025, 68720001025, 68720001025, 68720001025, 68720001025, 68720001025, 68720001025, 68720001025, 68720001025, 68720001025, 68720001025, 68720001025, 68720001025, 68720001025, 68720001025, 68720001025, 68720001025, 68720001025, 68720001025, 68720001025, 68720001025, 68720001025, 68720001025, 68720001025, 68720001025, 68720001025, 68720001025, 68720001025, 68720001025, 68720001025, 68720001025, 68720001025, 68720001025, 68720001025, 68720001025, 68720001025, 68720001025, 68720001025, 68720001025, 68720001025, 68720001025, 68720001025, 68720001025, 68720001025, 68720001025, 68720001025, 68720001025, 68720001025, 68720001025, 68720001025, 68720001025, 68720001025, 68720001025, 68720001025, 68720001025, 68720001025, 68720001025, 68720001025, 68720001025, 68720001025, 68720001025, 68720001025, 68720001025, 68720001025, 68720001025, 68720001025, 68720001025, 68720001025, 68720001025, 68720001025, 68720001025, 68720001025, 68720001025, 68720001025, 68720001025, 68720001025, 68720001025, 68720001025, 68720001025, 68720001025, 68720001025, 68720001025, 68720001025, 68720001025, 68720001025, 68720001025, 68720001025, 68720001025, 68720001025, 68720001025, 68720001025, 68720001025, 68720001025, 68720001025, 68720001025, 68720001025, 68720001025, 68720001025, 68720001025, 68720001025, 68720001025, 68720001025, 68720001025, 68720001025, 68720001025, 68720001025, 68720001025, 68720001025, 68720001025, 68720001025, 68720001025, 68720001025, 68720001025, 68720001025, 68720001025, 68720001025, 68720001025, 68720001025, 68720001025, 68720001025, 68720001025, 68720001025, 68720001025, 68720001025, 68720001025, 68720001025, 68720001025, 68720001025, 68720001025, 68720001025, 68720001025, 68720001025, 68720001025, 68720001025, 68720001025, 68720001025, 68720001025, 68720001025, 68720001025, 68720001025, 68720001025, 68720001025, 68720001025, 68720001025, 68720001025, 68720001025, 68720001025, 68720001025, 68720001025, 68720001025, 68720001025, 68720001025, 68720001025, 68720001025, 68720001025, 68720001025, 68720001025, 68720001025, 68720001025, 68720001025, 68720001025, 68720001025, 68720001025, 68720001025, 68720001025, 68720001025, 68720001025, 68720001025, 68720001025, 68720001025, 68720001025, 68720001025, 68720001025, 68720001025, 68720001025, 68720001025, 68720001025, 68720001025, 68720001025, 68720001025, 68720001025, 68720001025, 68720001025, 68720001025, 68720001025, 68720001025, 68720001025, 68720001025, 68720001025, 68720001025, 68720001025, 68720001025, 68720001025, 68720001025, 68720001025, 68720001025, 68720001025, 68720001025, 68720001025, 68720001025, 68720001025, 68720001025, 68720001025, 68720001025, 68720001025, 68720001025, 68720001025, 68720001025, 68720001025, 68720001025, 68720001025, 68720001025, 68720001025, 68720001025, 68720001025, 68720001025, 68720001025, 68720001025, 68720001025, 68720001025, 68720001025, 68720001025, 68720001025, 68720001025, 68720001025, 68720001025, 68720001025, 68720001025, 68720001025, 68720001025, 68720001025, 68720001025, 68720001025, 68720001025, 68720001025, 68720001025, 68720001025, 68720001025, 68720001025, 68720001025, 68720001025, 68720001025, 68720001025, 68720001025, 68720001025, 68720001025, 68720001025, 68720001025, 68720001025, 68720001025, 68720001025, 68720001025, 68720001025, 68720001025, 68720001025, 68720001025, 68720001025, 68720001025, 68720001025, 68720001025, 68720001025, 68720001025, 68720001025, 68720001025, 68720001025, 68720001025, 68720001025, 68720001025, 68720001025, 68720001025, 68720001025, 68720001025, 68720001025, 68720001025, 68720001025, 68720001025, 68720001025, 68720001025, 68720001025, 68720001025, 68720001025, 68720001025, 68720001025, 68720001025, 68720001025, 68720001025, 68720001025, 68720001025, 68720001025, 68720001025, 68720001025, 68720001025, 68720001025, 68720001025, 68720001025, 68720001025, 68720001025, 68720001025, 68720001025, 68720001025, 68720001025, 68720001025, 68720001025, 68720001025, 68720001025, 68720001025, 68720001025, 68720001025, 68720001025, 68720001025, 68720001025, 68720001025, 68720001025, 68720001025, 68720001025, 68720001025, 68720001025, 68720001025, 68720001025, 68720001025, 68720001025, 68720001025, 68720001025, 68720001025, 68720001025, 68720001025, 68720001025, 68720001025, 68720001025, 68720001025, 68720001025, 68720001025, 68720001025, 68720001025, 68720001025, 68720001025, 68720001025, 68720001025, 68720001025, 68720001025, 68720001025, 68720001025, 68720001025, 68720001025, 68720001025, 68720001025, 68720001025, 68720001025, 68720001025, 68720001025, 68720001025, 68720001025, 68720001025, 68720001025, 68720001025, 68720001025, 68720001025, 68720001025, 68720001025, 68720001025, 68720001025, 68720001025, 68720001025, 68720001025, 68720001025, 68720001025, 68720001025, 68720001025, 68720001025, 68720001025, 68720001025, 68720001025, 68720001025, 68720001025, 68720001025, 68720001025, 68720001025, 68720001025, 68720001025, 68720001025, 68720001025, 68720001025, 68720001025, 68720001025, 68720001025, 68720001025, 68720001025, 68720001025, 68720001025, 68720001025, 68720001025, 68720001025, 68720001025, 68720001025, 68720001025, 68720001025, 68720001025, 68720001025, 68720001025, 68720001025, 68720001025, 68720001025, 68720001025, 68720001025, 68720001025, 68720001025, 68720001025, 68720001025, 68720001025, 68720001025, 68720001025, 68720001025, 68720001025, 68720001025, 68720001025, 68720001025, 68720001025, 68720001025, 68720001025, 68720001025, 68720001025, 68720001025, 68720001025, 68720001025, 68720001025, 68720001025, 68720001025, 68720001025, 68720001025, 68720001025, 68720001025, 68720001025, 68720001025, 68720001025, 68720001025, 68720001025, 68720001025, 68720001025, 68720001025, 68720001025, 68720001025, 68720001025, 68720001025, 68720001025, 68720001025, 68720001025, 68720001025, 68720001025, 68720001025, 68720001025, 68720001025, 68720001025, 68720001025, 68720001025, 68720001025, 68720001025, 68720001025, 68720001025, 68720001025, 68720001025, 68720001025, 68720001025, 68720001025, 68720001025, 68720001025, 68720001025, 68720001025, 68720001025, 68720001025, 68720001025, 68720001025, 68720001025, 68720001025, 68720001025, 68720001025, 68720001025, 68720001025, 68720001025, 68720001025, 68720001025, 68720001025, 68720001025, 68720001025, 68720001025, 68720001025, 68720001025, 68720001025, 68720001025, 68720001025, 68720001025, 68720001025, 68720001025, 68720001025, 68720001025, 68720001025, 68720001025, 68720001025, 68720001025, 68720001025, 68720001025, 68720001025, 68720001025, 68720001025, 68720001025, 68720001025, 68720001025, 68720001025, 68720001025, 68720001025, 68720001025, 68720001025, 68720001025, 68720001025, 68720001025, 68720001025, 68720001025, 68720001025, 68720001025, 68720001025, 68720001025, 68720001025, 68720001025, 68720001025, 68720001025, 68720001025, 68720001025, 68720001025, 68720001025, 68720001025, 68720001025, 68720001025, 68720001025, 68720001025, 68720001025, 68720001025, 68720001025, 68720001025, 68720001025, 68720001025, 68720001025, 68720001025, 68720001025, 68720001025, 68720001025, 68720001025, 68720001025, 68720001025, 68720001025, 68720001025, 68720001025, 68720001025, 68720001025, 68720001025, 68720001025, 68720001025, 68720001025, 68720001025, 68720001025, 68720001025, 68720001025, 68720001025, 68720001025, 68720001025, 68720001025, 68720001025, 68720001025, 68720001025, 68720001025, 68720001025, 68720001025, 68720001025, 68720001025, 68720001025, 68720001025, 68720001025, 68720001025, 68720001025, 68720001025, 68720001025, 68720001025, 68720001025, 68720001025, 68720001025, 68720001025, 68720001025, 68720001025, 68720001025, 68720001025, 68720001025, 68720001025, 68720001025, 68720001025, 68720001025, 68720001025, 68720001025, 68720001025, 68720001025, 68720001025, 68720001025, 68720001025, 68720001025, 68720001025, 68720001025, 68720001025, 68720001025, 68720001025, 68720001025, 68720001025, 68720001025, 68720001025, 68720001025, 68720001025, 68720001025, 68720001025, 68720001025, 68720001025, 68720001025, 68720001025, 68720001025, 68720001025, 68720001025, 68720001025, 68720001025, 68720001025, 68720001025, 68720001025, 68720001025, 68720001025, 68720001025, 68720001025, 68720001025, 68720001025, 68720001025, 68720001025, 68720001025, 68720001025, 68720001025, 68720001025, 68720001025, 68720001025, 68720001025, 68720001025, 68720001025, 68720001025, 68720001025, 68720001025, 68720001025, 68720001025, 68720001025, 68720001025, 68720001025, 68720001025, 68720001025, 68720001025, 68720001025, 68720001025, 68720001025, 68720001025, 68720001025, 68720001025, 68720001025, 68720001025, 68720001025, 68720001025, 68720001025, 68720001025, 68720001025, 68720001025, 68720001025, 68720001025, 68720001025, 68720001025, 68720001025, 68720001025, 68720001025, 68720001025, 68720001025, 68720001025, 68720001025, 68720001025, 68720001025, 68720001025, 68720001025, 68720001025, 68720001025, 68720001025, 68720001025, 68720001025, 68720001025, 68720001025, 68720001025, 68720001025, 68720001025, 68720001025, 68720001025, 68720001025, 68720001025, 68720001025, 68720001025, 68720001025, 68720001025, 68720001025, 68720001025, 68720001025, 68720001025, 68720001025, 68720001025, 68720001025, 68720001025, 68720001025, 68720001025, 68720001025, 68720001025, 68720001025, 68720001025, 68720001025, 68720001025, 68720001025, 68720001025, 68720001025, 68720001025, 68720001025, 68720001025, 68720001025, 68720001025, 68720001025, 68720001025, 68720001025, 68720001025, 68720001025, 68720001025, 68720001025, 68720001025, 68720001025, 68720001025, 68720001025, 68720001025, 68720001025, 68720001025, 68720001025, 68720001025, 68720001025, 68720001025, 68720001025, 68720001025, 68720001025, 68720001025, 68720001025, 68720001025, 68720001025, 68720001025, 68720001025, 68720001025, 68720001025, 68720001025, 68720001025, 68720001025, 68720001025, 68720001025, 68720001025, 68720001025, 68720001025, 68720001025, 68720001025, 68720001025, 68720001025, 68720001025, 68720001025, 68720001025, 68720001025, 68720001025, 68720001025, 68720001025, 68720001025, 68720001025, 68720001025, 68720001025, 68720001025, 68720001025, 68720001025, 68720001025, 68720001025, 68720001025, 68720001025, 68720001025, 68720001025, 68720001025, 68720001025, 68720001025, 68720001025, 68720001025, 68720001025, 68720001025, 68720001025, 68720001025, 68720001025, 68720001025, 68720001025, 68720001025, 68720001025, 68720001025, 68720001025, 68720001025, 68720001025, 68720001025, 68720001025, 68720001025, 68720001025, 68720001025, 68720001025, 68720001025, 68720001025, 68720001025, 68720001025, 68720001025, 68720001025, 68720001025, 68720001025, 68720001025, 68720001025, 68720001025, 68720001025, 68720001025, 68720001025, 68720001025, 68720001025, 68720001025, 68720001025, 68720001025, 68720001025, 68720001025, 68720001025, 68720001025, 68720001025, 68720001025, 68720001025, 68720001025, 68720001025, 68720001025, 68720001025, 68720001025, 68720001025, 68720001025, 68720001025, 68720001025, 68720001025, 68720001025, 68720001025, 68720001025, 68720001025, 68720001025, 68720001025, 68720001025, 68720001025, 68720001025, 68720001025, 68720001025, 68720001025, 68720001025, 68720001025, 68720001025, 68720001025, 68720001025, 68720001025, 68720001025, 68720001025, 68720001025, 68720001025, 68720001025, 68720001025, 68720001025, 68720001025, 68720001025, 68720001025, 68720001025, 68720001025, 68720001025, 68720001025, 68720001025, 68720001025, 68720001025, 68720001025, 68720001025, 68720001025, 68720001025, 68720001025, 68720001025, 68720001025, 68720001025, 68720001025, 68720001025, 68720001025, 68720001025, 68720001025, 68720001025, 68720001025, 68720001025, 68720001025, 68720001025, 68720001025, 68720001025, 68720001025, 68720001025, 68720001025, 68720001025, 68720001025, 68720001025, 68720001025, 68720001025, 68720001025, 68720001025, 68720001025, 68720001025, 68720001025, 68720001025, 68720001025, 68720001025, 68720001025, 68720001025, 68720001025, 68720001025, 68720001025, 68720001025, 68720001025, 68720001025, 68720001025, 68720001025, 68720001025, 68720001025, 68720001025, 68720001025, 68720001025, 68720001025, 68720001025, 68720001025, 68720001025, 68720001025, 68720001025, 68720001025, 68720001025, 68720001025, 68720001025, 68720001025, 68720001025, 68720001025, 68720001025, 68720001025, 68720001025, 68720001025, 68720001025, 68720001025, 68720001025, 68720001025, 68720001025, 68720001025, 68720001025, 68720001025, 68720001025, 68720001025, 68720001025, 68720001025, 68720001025, 68720001025, 68720001025, 68720001025, 68720001025, 68720001025, 68720001025, 68720001025, 68720001025, 68720001025, 68720001025, 68720001025, 68720001025, 68720001025, 68720001025, 68720001025, 68720001025, 68720001025, 68720001025, 68720001025, 68720001025, 68720001025, 68720001025, 68720001025, 68720001025, 68720001025, 68720001025, 68720001025, 68720001025, 68720001025, 68720001025, 68720001025, 68720001025, 68720001025, 68720001025, 68720001025, 68720001025, 68720001025, 68720001025, 68720001025, 68720001025, 68720001025, 68720001025, 68720001025, 68720001025, 68720001025, 68720001025, 68720001025, 68720001025, 68720001025, 68720001025, 68720001025, 68720001025, 68720001025, 68720001025, 68720001025, 68720001025, 68720001025, 68720001025, 68720001025, 68720001025, 68720001025, 68720001025, 68720001025, 68720001025, 68720001025, 68720001025, 68720001025, 68720001025, 68720001025, 68720001025, 68720001025, 68720001025, 68720001025, 68720001025, 68720001025, 68720001025, 68720001025, 68720001025, 68720001025, 68720001025, 68720001025, 68720001025, 68720001025, 68720001025, 68720001025, 68720001025, 68720001025, 68720001025, 68720001025, 68720001025, 68720001025, 68720001025, 68720001025, 68720001025, 68720001025, 68720001025, 68720001025, 68720001025, 68720001025, 68720001025, 68720001025, 68720001025, 68720001025, 68720001025, 68720001025, 68720001025, 68720001025, 68720001025, 68720001025, 68720001025, 68720001025, 68720001025, 68720001025, 68720001025, 68720001025, 68720001025, 68720001025, 68720001025, 68720001025, 68720001025, 68720001025, 68720001025, 68720001025, 68720001025, 68720001025, 68720001025, 68720001025, 68720001025, 68720001025, 68720001025, 68720001025, 68720001025, 68720001025, 68720001025, 68720001025, 68720001025, 68720001025, 68720001025, 68720001025, 68720001025, 68720001025, 68720001025, 68720001025, 68720001025, 68720001025, 68720001025, 68720001025, 68720001025, 68720001025, 68720001025, 68720001025, 68720001025, 68720001025, 68720001025, 68720001025, 68720001025, 68720001025, 68720001025, 68720001025, 68720001025, 68720001025, 68720001025, 68720001025, 68720001025, 68720001025, 68720001025, 68720001025, 68720001025, 68720001025, 68720001025, 68720001025, 68720001025, 68720001025, 68720001025, 68720001025, 68720001025, 68720001025, 68720001025, 68720001025, 68720001025, 68720001025, 68720001025, 68720001025, 68720001025, 68720001025, 68720001025, 68720001025, 68720001025, 68720001025, 68720001025, 68720001025, 68720001025, 68720001025, 68720001025, 68720001025, 68720001025, 68720001025, 68720001025, 68720001025, 68720001025, 68720001025, 68720001025, 68720001025, 68720001025, 68720001025, 68720001025, 68720001025, 68720001025, 68720001025, 68720001025, 68720001025, 68720001025, 68720001025, 68720001025, 68720001025, 68720001025, 68720001025, 68720001025, 68720001025, 68720001025, 68720001025, 68720001025, 68720001025, 68720001025, 68720001025, 68720001025, 68720001025, 68720001025, 68720001025, 68720001025, 68720001025, 68720001025, 68720001025, 68720001025, 68720001025, 68720001025, 68720001025, 68720001025, 68720001025, 68720001025, 68720001025, 68720001025, 68720001025, 68720001025, 68720001025, 68720001025, 68720001025, 68720001025, 68720001025, 68720001025, 68720001025, 68720001025, 68720001025, 68720001025, 68720001025, 68720001025, 68720001025, 68720001025, 68720001025, 68720001025, 68720001025, 68720001025, 68720001025, 68720001025, 68720001025, 68720001025, 68720001025, 68720001025, 68720001025, 68720001025, 68720001025, 68720001025, 68720001025, 68720001025, 68720001025, 68720001025, 68720001025, 68720001025, 68720001025, 68720001025, 68720001025, 68720001025, 68720001025, 68720001025, 68720001025, 68720001025, 68720001025, 68720001025, 68720001025, 68720001025, 68720001025, 68720001025, 68720001025, 68720001025, 68720001025, 68720001025, 68720001025, 68720001025, 68720001025, 68720001025, 68720001025, 68720001025, 68720001025, 68720001025, 68720001025, 68720001025, 68720001025, 68720001025, 68720001025, 68720001025, 68720001025, 68720001025, 68720001025, 68720001025, 68720001025, 68720001025, 68720001025, 68720001025, 68720001025, 68720001025, 68720001025, 68720001025, 68720001025, 68720001025, 68720001025, 68720001025, 68720001025, 68720001025, 68720001025, 68720001025, 68720001025, 68720001025, 68720001025, 68720001025, 68720001025, 68720001025, 68720001025, 68720001025, 68720001025, 68720001025, 68720001025, 68720001025, 68720001025, 68720001025, 68720001025, 68720001025, 68720001025, 68720001025, 68720001025, 68720001025, 68720001025, 68720001025, 68720001025, 68720001025, 68720001025, 68720001025, 68720001025, 68720001025, 68720001025, 68720001025, 68720001025, 68720001025, 68720001025, 68720001025, 68720001025, 68720001025, 68720001025, 68720001025, 68720001025, 68720001025, 68720001025, 68720001025, 68720001025, 68720001025, 68720001025, 68720001025, 68720001025, 68720001025, 68720001025, 68720001025, 68720001025, 68720001025, 68720001025, 68720001025, 68720001025, 68720001025, 68720001025, 68720001025, 68720001025, 68720001025, 68720001025, 68720001025, 68720001025, 68720001025, 68720001025, 68720001025, 68720001025, 68720001025, 68720001025, 68720001025, 68720001025, 68720001025, 68720001025, 68720001025, 68720001025, 68720001025, 68720001025, 68720001025, 68720001025, 68720001025, 68720001025, 68720001025, 68720001025, 68720001025, 68720001025, 68720001025, 68720001025, 68720001025, 68720001025, 68720001025, 68720001025, 68720001025, 68720001025, 68720001025, 68720001025, 68720001025, 68720001025, 68720001025, 68720001025, 68720001025, 68720001025, 68720001025, 68720001025, 68720001025, 68720001025, 68720001025, 68720001025, 68720001025, 68720001025, 68720001025, 68720001025, 68720001025, 68720001025, 68720001025, 68720001025, 68720001025, 68720001025, 68720001025, 68720001025, 68720001025, 68720001025, 68720001025, 68720001025, 68720001025, 68720001025, 68720001025, 68720001025, 68720001025, 68720001025, 68720001025, 68720001025, 68720001025, 68720001025, 68720001025, 68720001025, 68720001025, 68720001025, 68720001025, 68720001025, 68720001025, 68720001025, 68720001025, 68720001025, 68720001025, 68720001025, 68720001025, 68720001025, 68720001025, 68720001025, 68720001025, 68720001025, 68720001025, 68720001025, 68720001025, 68720001025, 68720001025, 68720001025, 68720001025, 68720001025, 68720001025, 68720001025, 68720001025, 68720001025, 68720001025, 68720001025, 68720001025, 68720001025, 68720001025, 68720001025, 68720001025, 68720001025, 68720001025, 68720001025, 68720001025, 68720001025, 68720001025, 68720001025, 68720001025, 68720001025, 68720001025, 68720001025, 68720001025, 68720001025, 68720001025, 68720001025, 68720001025, 68720001025, 68720001025, 68720001025, 68720001025, 68720001025, 68720001025, 68720001025, 68720001025, 68720001025, 68720001025, 68720001025, 68720001025, 68720001025, 68720001025, 68720001025, 68720001025, 68720001025, 68720001025, 68720001025, 68720001025, 68720001025, 68720001025, 68720001025, 68720001025, 68720001025, 68720001025, 68720001025, 68720001025, 68720001025, 68720001025, 68720001025, 68720001025, 68720001025, 68720001025, 68720001025, 68720001025, 68720001025, 68720001025, 68720001025, 68720001025, 68720001025, 68720001025, 68720001025, 68720001025, 68720001025, 68720001025, 68720001025, 68720001025, 68720001025, 68720001025, 68720001025, 68720001025, 68720001025, 68720001025, 68720001025, 68720001025, 68720001025, 68720001025, 68720001025, 68720001025, 68720001025, 68720001025, 68720001025, 68720001025, 68720001025, 68720001025, 68720001025, 68720001025, 68720001025, 68720001025, 68720001025, 68720001025, 68720001025, 68720001025, 68720001025, 68720001025, 68720001025, 68720001025, 68720001025, 68720001025, 68720001025, 68720001025, 68720001025, 68720001025, 68720001025, 68720001025, 68720001025, 68720001025, 68720001025, 68720001025, 68720001025, 68720001025, 68720001025, 68720001025, 68720001025, 68720001025, 68720001025, 68720001025, 68720001025, 68720001025, 68720001025, 68720001025, 68720001025, 68720001025, 68720001025, 68720001025, 68720001025, 68720001025, 68720001025, 68720001025, 68720001025, 68720001025, 68720001025, 68720001025, 68720001025, 68720001025, 68720001025, 68720001025, 68720001025, 68720001025, 68720001025, 68720001025, 68720001025, 68720001025, 68720001025, 68720001025, 68720001025, 68720001025, 68720001025, 68720001025, 68720001025, 68720001025, 68720001025, 68720001025, 68720001025, 68720001025, 68720001025, 68720001025, 68720001025, 68720001025, 68720001025, 68720001025, 68720001025, 68720001025, 68720001025, 68720001025, 68720001025, 68720001025, 68720001025, 68720001025, 68720001025, 68720001025, 68720001025, 68720001025, 68720001025, 68720001025, 68720001025, 68720001025, 68720001025, 68720001025, 68720001025, 68720001025, 68720001025, 68720001025, 68720001025, 68720001025, 68720001025, 68720001025, 68720001025, 68720001025, 68720001025, 68720001025, 68720001025, 68720001025, 68720001025, 68720001025, 68720001025, 68720001025, 68720001025, 68720001025, 68720001025, 68720001025, 68720001025, 68720001025, 68720001025, 68720001025, 68720001025, 68720001025, 68720001025, 68720001025, 68720001025, 68720001025, 68720001025, 68720001025, 68720001025, 68720001025, 68720001025, 68720001025, 68720001025, 68720001025, 68720001025, 68720001025, 68720001025, 68720001025, 68720001025, 68720001025, 68720001025, 68720001025, 68720001025, 68720001025, 68720001025, 68720001025, 68720001025, 68720001025, 68720001025, 68720001025, 68720001025, 68720001025, 68720001025, 68720001025, 68720001025, 68720001025, 68720001025, 68720001025, 68720001025, 68720001025, 68720001025, 68720001025, 68720001025, 68720001025, 68720001025, 68720001025, 68720001025, 68720001025, 68720001025, 68720001025, 68720001025, 68720001025, 68720001025, 68720001025, 68720001025, 68720001025, 68720001025, 68720001025, 68720001025, 68720001025, 68720001025, 68720001025, 68720001025, 68720001025, 68720001025, 68720001025, 68720001025, 68720001025, 68720001025, 68720001025, 68720001025, 68720001025, 68720001025, 68720001025, 68720001025, 68720001025, 68720001025, 68720001025, 68720001025, 68720001025, 68720001025, 68720001025, 68720001025, 68720001025, 68720001025, 68720001025, 68720001025, 68720001025, 68720001025, 68720001025, 68720001025, 68720001025, 68720001025, 68720001025, 68720001025, 68720001025, 68720001025, 68720001025, 68720001025, 68720001025, 68720001025, 68720001025, 68720001025, 68720001025, 68720001025, 68720001025, 68720001025, 68720001025, 68720001025, 68720001025, 68720001025, 68720001025, 68720001025, 68720001025, 68720001025, 68720001025, 68720001025, 68720001025, 68720001025, 68720001025, 68720001025, 68720001025, 68720001025, 68720001025, 68720001025, 68720001025, 68720001025, 68720001025, 68720001025, 68720001025, 68720001025, 68720001025, 68720001025, 68720001025, 68720001025, 68720001025, 68720001025, 68720001025, 68720001025, 68720001025, 68720001025, 68720001025, 68720001025, 68720001025, 68720001025, 68720001025, 68720001025, 68720001025, 68720001025, 68720001025, 68720001025, 68720001025, 68720001025, 68720001025, 68720001025, 68720001025, 68720001025, 68720001025, 68720001025, 68720001025, 68720001025, 68720001025, 68720001025, 68720001025, 68720001025, 68720001025, 68720001025, 68720001025, 68720001025, 68720001025, 68720001025, 68720001025, 68720001025, 68720001025, 68720001025, 68720001025, 68720001025, 68720001025, 68720001025, 68720001025, 68720001025, 68720001025, 68720001025, 68720001025, 68720001025, 68720001025, 68720001025, 68720001025, 68720001025, 68720001025, 68720001025, 68720001025, 68720001025, 68720001025, 68720001025, 68720001025, 68720001025, 68720001025, 68720001025, 68720001025, 68720001025, 68720001025, 68720001025, 68720001025, 68720001025, 68720001025, 68720001025, 68720001025, 68720001025, 68720001025, 68720001025, 68720001025, 68720001025, 68720001025, 68720001025, 68720001025, 68720001025, 68720001025, 68720001025, 68720001025, 68720001025, 68720001025, 68720001025, 68720001025, 68720001025, 68720001025, 68720001025, 68720001025, 68720001025, 68720001025, 68720001025, 68720001025, 68720001025, 68720001025, 68720001025, 68720001025, 68720001025, 68720001025, 68720001025, 68720001025, 68720001025, 68720001025, 68720001025, 68720001025, 68720001025, 68720001025, 68720001025, 68720001025, 68720001025, 68720001025, 68720001025, 68720001025, 68720001025, 68720001025, 68720001025, 68720001025, 68720001025, 68720001025, 68720001025, 68720001025, 68720001025, 68720001025, 68720001025, 68720001025, 68720001025, 68720001025, 68720001025, 68720001025, 68720001025, 68720001025, 68720001025, 68720001025, 68720001025, 68720001025, 68720001025, 68720001025, 68720001025, 68720001025, 68720001025, 68720001025, 68720001025, 68720001025, 68720001025, 68720001025, 68720001025, 68720001025, 68720001025, 68720001025, 68720001025, 68720001025, 68720001025, 68720001025, 68720001025, 68720001025, 68720001025, 68720001025, 68720001025, 68720001025, 68720001025, 68720001025, 68720001025, 68720001025, 68720001025, 68720001025, 68720001025, 68720001025, 68720001025, 68720001025, 68720001025, 68720001025, 68720001025, 68720001025, 68720001025, 68720001025, 68720001025, 68720001025, 68720001025, 68720001025, 68720001025, 68720001025, 68720001025, 68720001025, 68720001025, 68720001025, 68720001025, 68720001025, 68720001025, 68720001025, 68720001025, 68720001025, 68720001025, 68720001025, 68720001025, 68720001025, 68720001025, 68720001025, 68720001025, 68720001025, 68720001025, 68720001025, 68720001025, 68720001025, 68720001025, 68720001025, 68720001025, 68720001025, 68720001025, 68720001025, 68720001025, 68720001025, 68720001025, 68720001025, 68720001025, 68720001025, 68720001025, 68720001025, 68720001025, 68720001025, 68720001025, 68720001025, 68720001025, 68720001025, 68720001025, 68720001025, 68720001025, 68720001025, 68720001025, 68720001025, 68720001025, 68720001025, 68720001025, 68720001025, 68720001025, 68720001025, 68720001025, 68720001025, 68720001025, 68720001025, 68720001025, 68720001025, 68720001025, 68720001025, 68720001025, 68720001025, 68720001025, 68720001025, 68720001025, 68720001025, 68720001025, 68720001025, 68720001025, 68720001025, 68720001025, 68720001025, 68720001025, 68720001025, 68720001025, 68720001025, 68720001025, 68720001025, 68720001025, 68720001025, 68720001025, 68720001025, 68720001025, 68720001025, 68720001025, 68720001025, 68720001025, 68720001025, 68720001025, 68720001025, 68720001025, 68720001025, 68720001025, 68720001025, 68720001025, 68720001025, 68720001025, 68720001025, 68720001025, 68720001025, 68720001025, 68720001025, 68720001025, 68720001025, 68720001025, 68720001025, 68720001025, 68720001025, 68720001025, 68720001025, 68720001025, 68720001025, 68720001025, 68720001025, 68720001025, 68720001025, 68720001025, 68720001025, 68720001025, 68720001025, 68720001025, 68720001025, 68720001025, 68720001025, 68720001025, 68720001025, 68720001025, 68720001025, 68720001025, 68720001025, 68720001025, 68720001025, 68720001025, 68720001025, 68720001025, 68720001025, 68720001025, 68720001025, 68720001025, 68720001025, 68720001025, 68720001025, 68720001025, 68720001025, 68720001025, 68720001025, 68720001025, 68720001025, 68720001025, 68720001025, 68720001025, 68720001025, 68720001025, 68720001025, 68720001025, 68720001025, 68720001025, 68720001025, 68720001025, 68720001025, 68720001025, 68720001025, 68720001025, 68720001025, 68720001025, 68720001025, 68720001025, 68720001025, 68720001025, 68720001025, 68720001025, 68720001025, 68720001025, 68720001025, 68720001025, 68720001025, 68720001025, 68720001025, 68720001025, 68720001025, 68720001025, 68720001025, 68720001025, 68720001025, 68720001025, 68720001025, 68720001025, 68720001025, 68720001025, 68720001025, 68720001025, 68720001025, 68720001025, 68720001025, 68720001025, 68720001025, 68720001025, 68720001025, 68720001025, 68720001025, 68720001025, 68720001025, 68720001025, 68720001025, 68720001025, 68720001025, 68720001025, 68720001025, 68720001025, 68720001025, 68720001025, 68720001025, 68720001025, 68720001025, 68720001025, 68720001025, 68720001025, 68720001025, 68720001025, 68720001025, 68720001025, 68720001025, 68720001025, 68720001025, 68720001025, 68720001025, 68720001025, 68720001025, 68720001025, 68720001025, 68720001025, 68720001025, 68720001025, 68720001025, 68720001025, 68720001025, 68720001025, 68720001025, 68720001025, 68720001025, 68720001025, 68720001025, 68720001025, 68720001025, 68720001025, 68720001025, 68720001025, 68720001025, 68720001025, 68720001025, 68720001025, 68720001025, 68720001025, 68720001025, 68720001025, 68720001025, 68720001025, 68720001025, 68720001025, 68720001025, 68720001025, 68720001025, 68720001025, 68720001025, 68720001025, 68720001025, 68720001025, 68720001025, 68720001025, 68720001025, 68720001025, 68720001025, 68720001025, 68720001025, 68720001025, 68720001025, 68720001025, 68720001025, 68720001025, 68720001025, 68720001025, 68720001025, 68720001025, 68720001025, 68720001025, 68720001025, 68720001025, 68720001025, 68720001025, 68720001025, 68720001025, 68720001025, 68720001025, 68720001025, 68720001025, 68720001025, 68720001025, 68720001025, 68720001025, 68720001025, 68720001025, 68720001025, 68720001025, 68720001025, 68720001025, 68720001025, 68720001025, 68720001025, 68720001025, 68720001025, 68720001025, 68720001025, 68720001025, 68720001025, 68720001025, 68720001025, 68720001025, 68720001025, 68720001025, 68720001025, 68720001025, 68720001025, 68720001025, 68720001025, 68720001025, 68720001025, 68720001025, 68720001025, 68720001025, 68720001025, 68720001025, 68720001025, 68720001025, 68720001025, 68720001025, 68720001025, 68720001025, 68720001025, 68720001025, 68720001025, 68720001025, 68720001025, 68720001025, 68720001025, 68720001025, 68720001025, 68720001025, 68720001025, 68720001025, 68720001025, 68720001025, 68720001025, 68720001025, 68720001025, 68720001025, 68720001025, 68720001025, 68720001025, 68720001025, 68720001025, 68720001025, 68720001025, 68720001025, 68720001025, 68720001025, 68720001025, 68720001025, 68720001025, 68720001025, 68720001025, 68720001025, 68720001025, 68720001025, 68720001025, 68720001025, 68720001025, 68720001025, 68720001025, 68720001025, 68720001025, 68720001025, 68720001025, 68720001025, 68720001025, 68720001025, 68720001025, 68720001025, 68720001025, 68720001025, 68720001025, 68720001025, 68720001025, 68720001025, 68720001025, 68720001025, 68720001025, 68720001025, 68720001025, 68720001025, 68720001025, 68720001025, 68720001025, 68720001025, 68720001025, 68720001025, 68720001025, 68720001025, 68720001025, 68720001025, 68720001025, 68720001025, 68720001025, 68720001025, 68720001025, 68720001025, 68720001025, 68720001025, 68720001025, 68720001025, 68720001025, 68720001025, 68720001025, 68720001025, 68720001025, 68720001025, 68720001025, 68720001025, 68720001025, 68720001025, 68720001025, 68720001025, 68720001025, 68720001025, 68720001025, 68720001025, 68720001025, 68720001025, 68720001025, 68720001025, 68720001025, 68720001025, 68720001025, 68720001025, 68720001025, 68720001025, 68720001025, 68720001025, 68720001025, 68720001025, 68720001025, 68720001025, 68720001025, 68720001025, 68720001025, 68720001025, 68720001025, 68720001025, 68720001025, 68720001025, 68720001025, 68720001025, 68720001025, 68720001025, 68720001025, 68720001025, 68720001025, 68720001025, 68720001025, 68720001025, 68720001025, 68720001025, 68720001025, 68720001025, 68720001025, 68720001025, 68720001025, 68720001025, 68720001025, 68720001025, 68720001025, 68720001025, 68720001025, 68720001025, 68720001025, 68720001025, 68720001025, 68720001025, 68720001025, 68720001025, 68720001025, 68720001025, 68720001025, 68720001025, 68720001025, 68720001025, 68720001025, 68720001025, 68720001025, 68720001025, 68720001025, 68720001025, 68720001025, 68720001025, 68720001025, 68720001025, 68720001025, 68720001025, 68720001025, 68720001025, 68720001025, 68720001025, 68720001025, 68720001025, 68720001025, 68720001025, 68720001025, 68720001025, 68720001025, 68720001025, 68720001025, 68720001025, 68720001025, 68720001025, 68720001025, 68720001025, 68720001025, 68720001025, 68720001025, 68720001025, 68720001025, 68720001025, 68720001025, 68720001025, 68720001025, 68720001025, 68720001025, 68720001025, 68720001025, 68720001025, 68720001025, 68720001025, 68720001025, 68720001025, 68720001025, 68720001025, 68720001025, 68720001025, 68720001025, 68720001025, 68720001025, 68720001025, 68720001025, 68720001025, 68720001025, 68720001025, 68720001025, 68720001025, 68720001025, 68720001025, 68720001025, 68720001025, 68720001025, 68720001025, 68720001025, 68720001025, 68720001025, 68720001025, 68720001025, 68720001025, 68720001025, 68720001025, 68720001025, 68720001025, 68720001025, 68720001025, 68720001025, 68720001025, 68720001025, 68720001025, 68720001025, 68720001025, 68720001025, 68720001025, 68720001025, 68720001025, 68720001025, 68720001025, 68720001025, 68720001025, 68720001025, 68720001025, 68720001025, 68720001025, 68720001025, 68720001025, 68720001025, 68720001025, 68720001025, 68720001025, 68720001025, 68720001025, 68720001025, 68720001025, 68720001025, 68720001025, 68720001025, 68720001025, 68720001025, 68720001025, 68720001025, 68720001025, 68720001025, 68720001025, 68720001025, 68720001025, 68720001025, 68720001025, 68720001025, 68720001025, 68720001025, 68720001025, 68720001025, 68720001025, 68720001025, 68720001025, 68720001025, 68720001025, 68720001025, 68720001025, 68720001025, 68720001025, 68720001025, 68720001025, 68720001025, 68720001025, 68720001025, 68720001025, 68720001025, 68720001025, 68720001025, 68720001025, 68720001025, 68720001025, 68720001025, 68720001025, 68720001025, 68720001025, 68720001025, 68720001025, 68720001025, 68720001025, 68720001025, 68720001025, 68720001025, 68720001025, 68720001025, 68720001025, 68720001025, 68720001025, 68720001025, 68720001025, 68720001025, 68720001025, 68720001025, 68720001025, 68720001025, 68720001025, 68720001025, 68720001025, 68720001025, 68720001025, 68720001025, 68720001025, 68720001025, 68720001025, 68720001025, 68720001025, 68720001025, 68720001025, 68720001025, 68720001025, 68720001025, 68720001025, 68720001025, 68720001025, 68720001025, 68720001025, 68720001025, 68720001025, 68720001025, 68720001025, 68720001025, 68720001025, 68720001025, 68720001025, 68720001025, 68720001025, 68720001025, 68720001025, 68720001025, 68720001025, 68720001025, 68720001025, 68720001025, 68720001025, 68720001025, 68720001025, 68720001025, 68720001025, 68720001025, 68720001025, 68720001025, 68720001025, 68720001025, 68720001025, 68720001025, 68720001025, 68720001025, 68720001025, 68720001025, 68720001025, 68720001025, 68720001025, 68720001025, 68720001025, 68720001025, 68720001025, 68720001025, 68720001025, 68720001025, 68720001025, 68720001025, 68720001025, 68720001025, 68720001025, 68720001025, 68720001025, 68720001025, 68720001025, 68720001025, 68720001025, 68720001025, 68720001025, 68720001025, 68720001025, 68720001025, 68720001025, 68720001025, 68720001025, 68720001025, 68720001025, 68720001025, 68720001025, 68720001025, 68720001025, 68720001025, 68720001025, 68720001025, 68720001025, 68720001025, 68720001025, 68720001025, 68720001025, 68720001025, 68720001025, 68720001025, 68720001025, 68720001025, 68720001025, 68720001025, 68720001025, 68720001025, 68720001025, 68720001025, 68720001025, 68720001025, 68720001025, 68720001025, 68720001025, 68720001025, 68720001025, 68720001025, 68720001025, 68720001025, 68720001025, 68720001025, 68720001025, 68720001025, 68720001025, 68720001025, 68720001025, 68720001025, 68720001025, 68720001025, 68720001025, 68720001025, 68720001025, 68720001025, 68720001025, 68720001025, 68720001025, 68720001025, 68720001025, 68720001025, 68720001025, 68720001025, 68720001025, 68720001025, 68720001025, 68720001025, 68720001025, 68720001025, 68720001025, 68720001025, 68720001025, 68720001025, 68720001025, 68720001025, 68720001025, 68720001025, 68720001025, 68720001025, 68720001025, 68720001025, 68720001025, 68720001025, 68720001025, 68720001025, 68720001025, 68720001025, 68720001025, 68720001025, 68720001025, 68720001025, 68720001025, 68720001025, 68720001025, 68720001025, 68720001025, 68720001025, 68720001025, 68720001025, 68720001025, 68720001025, 68720001025, 68720001025, 68720001025, 68720001025, 68720001025, 68720001025, 68720001025, 68720001025, 68720001025, 68720001025, 68720001025, 68720001025, 68720001025, 68720001025, 68720001025, 68720001025, 68720001025, 68720001025, 68720001025, 68720001025, 68720001025, 68720001025, 68720001025, 68720001025, 68720001025, 68720001025, 68720001025, 68720001025, 68720001025, 68720001025, 68720001025, 68720001025, 68720001025, 68720001025, 68720001025, 68720001025, 68720001025, 68720001025, 68720001025, 68720001025, 68720001025, 68720001025, 68720001025, 68720001025, 68720001025, 68720001025, 68720001025, 68720001025, 68720001025, 68720001025, 68720001025, 68720001025, 68720001025, 68720001025, 68720001025, 68720001025, 68720001025, 68720001025, 68720001025, 68720001025, 68720001025, 68720001025, 68720001025, 68720001025, 68720001025, 68720001025, 68720001025, 68720001025, 68720001025, 68720001025, 68720001025, 68720001025, 68720001025, 68720001025, 68720001025, 68720001025, 68720001025, 68720001025, 68720001025, 68720001025, 68720001025, 68720001025, 68720001025, 68720001025, 68720001025, 68720001025, 68720001025, 68720001025, 68720001025, 68720001025, 68720001025, 68720001025, 68720001025, 68720001025, 68720001025, 68720001025, 68720001025, 68720001025, 68720001025, 68720001025, 68720001025, 68720001025, 68720001025, 68720001025, 68720001025, 68720001025, 68720001025, 68720001025, 68720001025, 68720001025, 68720001025, 68720001025, 68720001025, 68720001025, 68720001025, 68720001025, 68720001025, 68720001025, 68720001025, 68720001025, 68720001025, 68720001025, 68720001025, 68720001025, 68720001025, 68720001025, 68720001025, 68720001025, 68720001025, 68720001025, 68720001025, 68720001025, 68720001025, 68720001025, 68720001025, 68720001025, 68720001025, 68720001025, 68720001025, 68720001025, 68720001025, 68720001025, 68720001025, 68720001025, 68720001025, 68720001025, 68720001025, 68720001025, 68720001025, 68720001025, 68720001025, 68720001025, 68720001025, 68720001025, 68720001025, 68720001025, 68720001025, 68720001025, 68720001025, 68720001025, 68720001025, 68720001025, 68720001025, 68720001025, 68720001025, 68720001025, 68720001025, 68720001025, 68720001025, 68720001025, 68720001025, 68720001025, 68720001025, 68720001025, 68720001025, 68720001025, 68720001025, 68720001025, 68720001025, 68720001025, 68720001025, 68720001025, 68720001025, 68720001025, 68720001025, 68720001025, 68720001025, 68720001025, 68720001025, 68720001025, 68720001025, 68720001025, 68720001025, 68720001025, 68720001025, 68720001025, 68720001025, 68720001025, 68720001025, 68720001025, 68720001025, 68720001025, 68720001025, 68720001025, 68720001025, 68720001025, 68720001025, 68720001025, 68720001025, 68720001025, 68720001025, 68720001025, 68720001025, 68720001025, 68720001025, 68720001025, 68720001025, 68720001025, 68720001025, 68720001025, 68720001025, 68720001025, 68720001025, 68720001025, 68720001025, 68720001025, 68720001025, 68720001025, 68720001025, 68720001025, 68720001025, 68720001025, 68720001025, 68720001025, 68720001025, 68720001025, 68720001025, 68720001025, 68720001025, 68720001025, 68720001025, 68720001025, 68720001025, 68720001025, 68720001025, 68720001025, 68720001025, 68720001025, 68720001025, 68720001025, 68720001025, 68720001025, 68720001025, 68720001025, 68720001025, 68720001025, 68720001025, 68720001025, 68720001025, 68720001025, 68720001025, 68720001025, 68720001025, 68720001025, 68720001025, 68720001025, 68720001025, 68720001025, 68720001025, 68720001025, 68720001025, 68720001025, 68720001025, 68720001025, 68720001025, 68720001025, 68720001025, 68720001025, 68720001025, 68720001025, 68720001025, 68720001025, 68720001025, 68720001025, 68720001025, 68720001025, 68720001025, 68720001025, 68720001025, 68720001025, 68720001025, 68720001025, 68720001025, 68720001025, 68720001025, 68720001025, 68720001025, 68720001025, 68720001025, 68720001025, 68720001025, 68720001025, 68720001025, 68720001025, 68720001025, 68720001025, 68720001025, 68720001025, 68720001025, 68720001025, 68720001025, 68720001025, 68720001025, 68720001025, 68720001025, 68720001025, 68720001025, 68720001025, 68720001025, 68720001025, 68720001025, 68720001025, 68720001025, 68720001025, 68720001025, 68720001025, 68720001025, 68720001025, 68720001025, 68720001025, 68720001025, 68720001025, 68720001025, 68720001025, 68720001025, 68720001025, 68720001025, 68720001025, 68720001025, 68720001025, 68720001025, 68720001025, 68720001025, 68720001025, 68720001025, 68720001025, 68720001025, 68720001025, 68720001025, 68720001025, 68720001025, 68720001025, 68720001025, 68720001025, 68720001025, 68720001025, 68720001025, 68720001025, 68720001025, 68720001025, 68720001025, 68720001025, 68720001025, 68720001025, 68720001025, 68720001025, 68720001025, 68720001025, 68720001025, 68720001025, 68720001025, 68720001025, 68720001025, 68720001025, 68720001025, 68720001025, 68720001025, 68720001025, 68720001025, 68720001025, 68720001025, 68720001025, 68720001025, 68720001025, 68720001025, 68720001025, 68720001025, 68720001025, 68720001025, 68720001025, 68720001025, 68720001025, 68720001025, 68720001025, 68720001025, 68720001025, 68720001025, 68720001025, 68720001025, 68720001025, 68720001025, 68720001025, 68720001025, 68720001025, 68720001025, 68720001025, 68720001025, 68720001025, 68720001025, 68720001025, 68720001025, 68720001025, 68720001025, 68720001025, 68720001025, 68720001025, 68720001025, 68720001025, 68720001025, 68720001025, 68720001025, 68720001025, 68720001025, 68720001025, 68720001025, 68720001025, 68720001025, 68720001025, 68720001025, 68720001025, 68720001025, 68720001025, 68720001025, 68720001025, 68720001025, 68720001025, 68720001025, 68720001025, 68720001025, 68720001025, 68720001025, 68720001025, 68720001025, 68720001025, 68720001025, 68720001025, 68720001025, 68720001025, 68720001025, 68720001025, 68720001025, 68720001025, 68720001025, 68720001025, 68720001025, 68720001025, 68720001025, 68720001025, 68720001025, 68720001025, 68720001025, 68720001025, 68720001025, 68720001025, 68720001025, 68720001025, 68720001025, 68720001025, 68720001025, 68720001025, 68720001025, 68720001025, 68720001025, 68720001025, 68720001025, 68720001025, 68720001025, 68720001025, 68720001025, 68720001025, 68720001025, 68720001025, 68720001025, 68720001025, 68720001025, 68720001025, 68720001025, 68720001025, 68720001025, 68720001025, 68720001025, 68720001025, 68720001025, 68720001025, 68720001025, 68720001025, 68720001025, 68720001025, 68720001025, 68720001025, 68720001025, 68720001025, 68720001025, 68720001025, 68720001025, 68720001025, 68720001025, 68720001025, 68720001025, 68720001025, 68720001025, 68720001025, 68720001025, 68720001025, 68720001025, 68720001025, 68720001025, 68720001025, 68720001025, 68720001025, 68720001025, 68720001025, 68720001025, 68720001025, 68720001025, 68720001025, 68720001025, 68720001025, 68720001025, 68720001025, 68720001025, 68720001025, 68720001025, 68720001025, 68720001025, 68720001025, 68720001025, 68720001025, 68720001025, 68720001025, 68720001025, 68720001025, 68720001025, 68720001025, 68720001025, 68720001025, 68720001025, 68720001025, 68720001025, 68720001025, 68720001025, 68720001025, 68720001025, 68720001025, 68720001025, 68720001025, 68720001025, 68720001025, 68720001025, 68720001025, 68720001025, 68720001025, 68720001025, 68720001025, 68720001025, 68720001025, 68720001025, 68720001025, 68720001025, 68720001025, 68720001025, 68720001025, 68720001025, 68720001025, 68720001025, 68720001025, 68720001025, 68720001025, 68720001025, 68720001025, 68720001025, 68720001025, 68720001025, 68720001025, 68720001025, 68720001025, 68720001025, 68720001025, 68720001025, 68720001025, 68720001025, 68720001025, 68720001025, 68720001025, 68720001025, 68720001025, 68720001025, 68720001025, 68720001025, 68720001025, 68720001025, 68720001025, 68720001025, 68720001025, 68720001025, 68720001025, 68720001025, 68720001025, 68720001025, 68720001025, 68720001025, 68720001025, 68720001025, 68720001025, 68720001025, 68720001025, 68720001025, 68720001025, 68720001025, 68720001025, 68720001025, 68720001025, 68720001025, 68720001025, 68720001025, 68720001025, 68720001025, 68720001025, 68720001025, 68720001025, 68720001025, 68720001025, 68720001025, 68720001025, 68720001025, 68720001025, 68720001025, 68720001025, 68720001025, 68720001025, 68720001025, 68720001025, 68720001025, 68720001025, 68720001025, 68720001025, 68720001025, 68720001025, 68720001025, 68720001025, 68720001025, 68720001025, 68720001025, 68720001025, 68720001025, 68720001025, 68720001025, 68720001025, 68720001025, 68720001025, 68720001025, 68720001025, 68720001025, 68720001025, 68720001025, 68720001025, 68720001025, 68720001025, 68720001025, 68720001025, 68720001025, 68720001025, 68720001025, 68720001025, 68720001025, 68720001025, 68720001025, 68720001025, 68720001025, 68720001025, 68720001025, 68720001025, 68720001025, 68720001025, 68720001025, 68720001025, 68720001025, 68720001025, 68720001025, 68720001025, 68720001025, 68720001025, 68720001025, 68720001025, 68720001025, 68720001025, 68720001025, 68720001025, 68720001025, 68720001025, 68720001025, 68720001025, 68720001025, 68720001025, 68720001025, 68720001025, 68720001025, 68720001025, 68720001025, 68720001025, 68720001025, 68720001025, 68720001025, 68720001025, 68720001025, 68720001025, 68720001025, 68720001025, 68720001025, 68720001025, 68720001025, 68720001025, 68720001025, 68720001025, 68720001025, 68720001025, 68720001025, 68720001025, 68720001025, 68720001025, 68720001025, 68720001025, 68720001025, 68720001025, 68720001025, 68720001025, 68720001025, 68720001025, 68720001025, 68720001025, 68720001025, 68720001025, 68720001025, 68720001025, 68720001025, 68720001025, 68720001025, 68720001025, 68720001025, 68720001025, 68720001025, 68720001025, 68720001025, 68720001025, 68720001025, 68720001025, 68720001025, 68720001025, 68720001025, 68720001025, 68720001025, 68720001025, 68720001025, 68720001025, 68720001025, 68720001025, 68720001025, 68720001025, 68720001025, 68720001025, 68720001025, 68720001025, 68720001025, 68720001025, 68720001025, 68720001025, 68720001025, 68720001025, 68720001025, 68720001025, 68720001025, 68720001025, 68720001025, 68720001025, 68720001025, 68720001025, 68720001025, 68720001025, 68720001025, 68720001025, 68720001025, 68720001025, 68720001025, 68720001025, 68720001025, 68720001025, 68720001025, 68720001025, 68720001025, 68720001025, 68720001025, 68720001025, 68720001025, 68720001025, 68720001025, 68720001025, 68720001025, 68720001025, 68720001025, 68720001025, 68720001025, 68720001025, 68720001025, 68720001025, 68720001025, 68720001025, 68720001025, 68720001025, 68720001025, 68720001025, 68720001025, 68720001025, 68720001025, 68720001025, 68720001025, 68720001025, 68720001025, 68720001025, 68720001025, 68720001025, 68720001025, 68720001025, 68720001025, 68720001025, 68720001025, 68720001025, 68720001025, 68720001025, 68720001025, 68720001025, 68720001025, 68720001025, 68720001025, 68720001025, 68720001025, 68720001025, 68720001025, 68720001025, 68720001025, 68720001025, 68720001025, 68720001025, 68720001025, 68720001025, 68720001025, 68720001025, 68720001025, 68720001025, 68720001025, 68720001025, 68720001025, 68720001025, 68720001025, 68720001025, 68720001025, 68720001025, 68720001025, 68720001025, 68720001025, 68720001025, 68720001025, 68720001025, 68720001025, 68720001025, 68720001025, 68720001025, 68720001025, 68720001025, 68720001025, 68720001025, 68720001025, 68720001025, 68720001025, 68720001025, 68720001025, 68720001025, 68720001025, 68720001025, 68720001025, 68720001025, 68720001025, 68720001025, 68720001025, 68720001025, 68720001025, 68720001025, 68720001025, 68720001025, 68720001025, 68720001025, 68720001025, 68720001025, 68720001025, 68720001025, 68720001025, 68720001025, 68720001025, 68720001025, 68720001025, 68720001025, 68720001025, 68720001025, 68720001025, 68720001025, 68720001025, 68720001025, 68720001025, 68720001025, 68720001025, 68720001025, 68720001025, 68720001025, 68720001025, 68720001025, 68720001025, 68720001025, 68720001025, 68720001025, 68720001025, 68720001025, 68720001025, 68720001025, 68720001025, 68720001025, 68720001025, 68720001025, 68720001025, 68720001025, 68720001025, 68720001025, 68720001025, 68720001025, 68720001025, 68720001025, 68720001025, 68720001025, 68720001025, 68720001025, 68720001025, 68720001025, 68720001025, 68720001025, 68720001025, 68720001025, 68720001025, 68720001025, 68720001025, 68720001025, 68720001025, 68720001025, 68720001025, 68720001025, 68720001025, 68720001025, 68720001025, 68720001025, 68720001025, 68720001025, 68720001025, 68720001025, 68720001025, 68720001025, 68720001025, 68720001025, 68720001025, 68720001025, 68720001025, 68720001025, 68720001025, 68720001025, 68720001025, 68720001025, 68720001025, 68720001025, 68720001025, 68720001025, 68720001025, 68720001025, 68720001025, 68720001025, 68720001025, 68720001025, 68720001025, 68720001025, 68720001025, 68720001025, 68720001025, 68720001025, 68720001025, 68720001025, 68720001025, 68720001025, 68720001025, 68720001025, 68720001025, 68720001025, 68720001025, 68720001025, 68720001025, 68720001025, 68720001025, 68720001025, 68720001025, 68720001025, 68720001025, 68720001025, 68720001025, 68720001025, 68720001025, 68720001025, 68720001025, 68720001025, 68720001025, 68720001025, 68720001025, 68720001025, 68720001025, 68720001025, 68720001025, 68720001025, 68720001025, 68720001025, 68720001025, 68720001025, 68720001025, 68720001025, 68720001025, 68720001025, 68720001025, 68720001025, 68720001025, 68720001025, 68720001025, 68720001025, 68720001025, 68720001025, 68720001025, 68720001025, 68720001025, 68720001025, 68720001025, 68720001025, 68720001025, 68720001025, 68720001025, 68720001025, 68720001025, 68720001025, 68720001025, 68720001025, 68720001025, 68720001025, 68720001025, 68720001025, 68720001025, 68720001025, 68720001025, 68720001025, 68720001025, 68720001025, 68720001025, 68720001025, 68720001025, 68720001025, 68720001025, 68720001025, 68720001025, 68720001025, 68720001025, 68720001025, 68720001025, 68720001025, 68720001025, 68720001025, 68720001025, 68720001025, 68720001025, 68720001025, 68720001025, 68720001025, 68720001025, 68720001025, 68720001025, 68720001025, 68720001025, 68720001025, 68720001025, 68720001025, 68720001025, 68720001025, 68720001025, 68720001025, 68720001025, 68720001025, 68720001025, 68720001025, 68720001025, 68720001025, 68720001025, 68720001025, 68720001025, 68720001025, 68720001025, 68720001025, 68720001025, 68720001025, 68720001025, 68720001025, 68720001025, 68720001025, 68720001025, 68720001025, 68720001025, 68720001025, 68720001025, 68720001025, 68720001025, 68720001025, 68720001025, 68720001025, 68720001025, 68720001025, 68720001025, 68720001025, 68720001025, 68720001025, 68720001025, 68720001025, 68720001025, 68720001025, 68720001025, 68720001025, 68720001025, 68720001025, 68720001025, 68720001025, 68720001025, 68720001025, 68720001025, 68720001025, 68720001025, 68720001025, 68720001025, 68720001025, 68720001025, 68720001025, 68720001025, 68720001025, 68720001025, 68720001025, 68720001025, 68720001025, 68720001025, 68720001025, 68720001025, 68720001025, 68720001025, 68720001025, 68720001025, 68720001025, 68720001025, 68720001025, 68720001025, 68720001025, 68720001025, 68720001025, 68720001025, 68720001025, 68720001025, 68720001025, 68720001025, 68720001025, 68720001025, 68720001025, 68720001025, 68720001025, 68720001025, 68720001025, 68720001025, 68720001025, 68720001025, 68720001025, 68720001025, 68720001025, 68720001025, 68720001025, 68720001025, 68720001025, 68720001025, 68720001025, 68720001025, 68720001025, 68720001025, 68720001025, 68720001025, 68720001025, 68720001025, 68720001025, 68720001025, 68720001025, 68720001025, 68720001025, 68720001025, 68720001025, 68720001025, 68720001025, 68720001025, 68720001025, 68720001025, 68720001025, 68720001025, 68720001025, 68720001025, 68720001025, 68720001025, 68720001025, 68720001025, 68720001025, 68720001025, 68720001025, 68720001025, 68720001025, 68720001025, 68720001025, 68720001025, 68720001025, 68720001025, 68720001025, 68720001025, 68720001025, 68720001025, 68720001025, 68720001025, 68720001025, 68720001025, 68720001025, 68720001025, 68720001025, 68720001025, 68720001025, 68720001025, 68720001025, 68720001025, 68720001025, 68720001025, 68720001025, 68720001025, 68720001025, 68720001025, 68720001025, 68720001025, 68720001025, 68720001025, 68720001025, 68720001025, 68720001025, 68720001025, 68720001025, 68720001025, 68720001025, 68720001025, 68720001025, 68720001025, 68720001025, 68720001025, 68720001025, 68720001025, 68720001025, 68720001025, 68720001025, 68720001025, 68720001025, 68720001025, 68720001025, 68720001025, 68720001025, 68720001025, 68720001025, 68720001025, 68720001025, 68720001025, 68720001025, 68720001025, 68720001025, 68720001025, 68720001025, 68720001025, 68720001025, 68720001025, 68720001025, 68720001025, 68720001025, 68720001025, 68720001025, 68720001025, 68720001025, 68720001025, 68720001025, 68720001025, 68720001025, 68720001025, 68720001025, 68720001025, 68720001025, 68720001025, 68720001025, 68720001025, 68720001025, 68720001025, 68720001025, 68720001025, 68720001025, 68720001025, 68720001025, 68720001025, 68720001025, 68720001025, 68720001025, 68720001025, 68720001025, 68720001025, 68720001025, 68720001025, 68720001025, 68720001025, 68720001025, 68720001025, 68720001025, 68720001025, 68720001025, 68720001025, 68720001025, 68720001025, 68720001025, 68720001025, 68720001025, 68720001025, 68720001025, 68720001025, 68720001025, 68720001025, 68720001025, 68720001025, 68720001025, 68720001025, 68720001025, 68720001025, 68720001025, 68720001025, 68720001025, 68720001025, 68720001025, 68720001025, 68720001025, 68720001025, 68720001025, 68720001025, 68720001025, 68720001025, 68720001025, 68720001025, 68720001025, 68720001025, 68720001025, 68720001025, 68720001025, 68720001025, 68720001025, 68720001025, 68720001025, 68720001025, 68720001025, 68720001025, 68720001025, 68720001025, 68720001025, 68720001025, 68720001025, 68720001025, 68720001025, 68720001025, 68720001025, 68720001025, 68720001025, 68720001025, 68720001025, 68720001025, 68720001025, 68720001025, 68720001025, 68720001025, 68720001025, 68720001025, 68720001025, 68720001025, 68720001025, 68720001025, 68720001025, 68720001025, 68720001025, 68720001025, 68720001025, 68720001025, 68720001025, 68720001025, 68720001025, 68720001025, 68720001025, 68720001025, 68720001025, 68720001025, 68720001025, 68720001025, 68720001025, 68720001025, 68720001025, 68720001025, 68720001025, 68720001025, 68720001025, 68720001025, 68720001025, 68720001025, 68720001025, 68720001025, 68720001025, 68720001025, 68720001025, 68720001025, 68720001025, 68720001025, 68720001025, 68720001025, 68720001025, 68720001025, 68720001025, 68720001025, 68720001025, 68720001025, 68720001025, 68720001025, 68720001025, 68720001025, 68720001025, 68720001025, 68720001025, 68720001025, 68720001025, 68720001025, 68720001025, 68720001025, 68720001025, 68720001025, 68720001025, 68720001025, 68720001025, 68720001025, 68720001025, 68720001025, 68720001025, 68720001025, 68720001025, 68720001025, 68720001025, 68720001025, 68720001025, 68720001025, 68720001025, 68720001025, 68720001025, 68720001025, 68720001025, 68720001025, 68720001025, 68720001025, 68720001025, 68720001025, 68720001025, 68720001025, 68720001025, 68720001025, 68720001025, 68720001025, 68720001025, 68720001025, 68720001025, 68720001025, 68720001025, 68720001025, 68720001025, 68720001025, 68720001025, 68720001025, 68720001025, 68720001025, 68720001025, 68720001025, 68720001025, 68720001025, 68720001025, 68720001025, 68720001025, 68720001025, 68720001025, 68720001025, 68720001025, 68720001025, 68720001025, 68720001025, 68720001025, 68720001025, 68720001025, 68720001025, 68720001025, 68720001025, 68720001025, 68720001025, 68720001025, 68720001025, 68720001025, 68720001025, 68720001025, 68720001025, 68720001025, 68720001025, 68720001025, 68720001025, 68720001025, 68720001025, 68720001025, 68720001025, 68720001025, 68720001025, 68720001025, 68720001025, 68720001025, 68720001025, 68720001025, 68720001025, 68720001025, 68720001025, 68720001025, 68720001025, 68720001025, 68720001025, 68720001025, 68720001025, 68720001025, 68720001025, 68720001025, 68720001025, 68720001025, 68720001025, 68720001025, 68720001025, 68720001025, 68720001025, 68720001025, 68720001025, 68720001025, 68720001025, 68720001025, 68720001025, 68720001025, 68720001025, 68720001025, 68720001025, 68720001025, 68720001025, 68720001025, 68720001025, 68720001025, 68720001025, 68720001025, 68720001025, 68720001025, 68720001025, 68720001025, 68720001025, 68720001025, 68720001025, 68720001025, 68720001025, 68720001025, 68720001025, 68720001025, 68720001025, 68720001025, 68720001025, 68720001025, 68720001025, 68720001025, 68720001025, 68720001025, 68720001025, 68720001025, 68720001025, 68720001025, 68720001025, 68720001025, 68720001025, 68720001025, 68720001025, 68720001025, 68720001025, 68720001025, 68720001025, 68720001025, 68720001025, 68720001025, 68720001025, 68720001025, 68720001025, 68720001025, 68720001025, 68720001025, 68720001025, 68720001025, 68720001025, 68720001025, 68720001025, 68720001025, 68720001025, 68720001025, 68720001025, 68720001025, 68720001025, 68720001025, 68720001025, 68720001025, 68720001025, 68720001025, 68720001025, 68720001025, 68720001025, 68720001025, 68720001025, 68720001025, 68720001025, 68720001025, 68720001025, 68720001025, 68720001025, 68720001025, 68720001025, 68720001025, 68720001025, 68720001025, 68720001025, 68720001025, 68720001025, 68720001025, 68720001025, 68720001025, 68720001025, 68720001025, 68720001025, 68720001025, 68720001025, 68720001025, 68720001025, 68720001025, 68720001025, 68720001025, 68720001025, 68720001025, 68720001025, 68720001025, 68720001025, 68720001025, 68720001025, 68720001025, 68720001025, 68720001025, 68720001025, 68720001025, 68720001025, 68720001025, 68720001025, 68720001025, 68720001025, 68720001025, 68720001025, 68720001025, 68720001025, 68720001025, 68720001025, 68720001025, 68720001025, 68720001025, 68720001025, 68720001025, 68720001025, 68720001025, 68720001025, 68720001025, 68720001025, 68720001025, 68720001025, 68720001025, 68720001025, 68720001025, 68720001025, 68720001025, 68720001025, 68720001025, 68720001025, 68720001025, 68720001025, 68720001025, 68720001025, 68720001025, 68720001025, 68720001025, 68720001025, 68720001025, 68720001025, 68720001025, 68720001025, 68720001025, 68720001025, 68720001025, 68720001025, 68720001025, 68720001025, 68720001025, 68720001025, 68720001025, 68720001025, 68720001025, 68720001025, 68720001025, 68720001025, 68720001025, 68720001025, 68720001025, 68720001025, 68720001025, 68720001025, 68720001025, 68720001025, 68720001025, 68720001025, 68720001025, 68720001025, 68720001025, 68720001025, 68720001025, 68720001025, 68720001025, 68720001025, 68720001025, 68720001025, 68720001025, 68720001025, 68720001025, 68720001025, 68720001025, 68720001025, 68720001025, 68720001025, 68720001025, 68720001025, 68720001025, 68720001025, 68720001025, 68720001025, 68720001025, 68720001025, 68720001025, 68720001025, 68720001025, 68720001025, 68720001025, 68720001025, 68720001025, 68720001025, 68720001025, 68720001025, 68720001025, 68720001025, 68720001025, 68720001025, 68720001025, 68720001025, 68720001025, 68720001025, 68720001025, 68720001025, 68720001025, 68720001025, 68720001025, 68720001025, 68720001025, 68720001025, 68720001025, 68720001025, 68720001025, 68720001025, 68720001025, 68720001025, 68720001025, 68720001025, 68720001025, 68720001025, 68720001025, 68720001025, 68720001025, 68720001025, 68720001025, 68720001025, 68720001025, 68720001025, 68720001025, 68720001025, 68720001025, 68720001025, 68720001025, 68720001025, 68720001025, 68720001025, 68720001025, 68720001025, 68720001025, 68720001025, 68720001025, 68720001025, 68720001025, 68720001025, 68720001025, 68720001025, 68720001025, 68720001025, 68720001025, 68720001025, 68720001025, 68720001025, 68720001025, 68720001025, 68720001025, 68720001025, 68720001025, 68720001025, 68720001025, 68720001025, 68720001025, 68720001025, 68720001025, 68720001025, 68720001025, 68720001025, 68720001025, 68720001025, 68720001025, 68720001025, 68720001025, 68720001025, 68720001025, 68720001025, 68720001025, 68720001025, 68720001025, 68720001025, 68720001025, 68720001025, 68720001025, 68720001025, 68720001025, 68720001025, 68720001025, 68720001025, 68720001025, 68720001025, 68720001025, 68720001025, 68720001025, 68720001025, 68720001025, 68720001025, 68720001025, 68720001025, 68720001025, 68720001025, 68720001025, 68720001025, 68720001025, 68720001025, 68720001025, 68720001025, 68720001025, 68720001025, 68720001025, 68720001025, 68720001025, 68720001025, 68720001025, 68720001025, 68720001025, 68720001025, 68720001025, 68720001025, 68720001025, 68720001025, 68720001025, 68720001025, 68720001025, 68720001025, 68720001025, 68720001025, 68720001025, 68720001025, 68720001025, 68720001025, 68720001025, 68720001025, 68720001025, 68720001025, 68720001025, 68720001025, 68720001025, 68720001025, 68720001025, 68720001025, 68720001025, 68720001025, 68720001025, 68720001025, 68720001025, 68720001025, 68720001025, 68720001025, 68720001025, 68720001025, 68720001025, 68720001025, 68720001025, 68720001025, 68720001025, 68720001025, 68720001025, 68720001025, 68720001025, 68720001025, 68720001025, 68720001025, 68720001025, 68720001025, 68720001025, 68720001025, 68720001025, 68720001025, 68720001025, 68720001025, 68720001025, 68720001025, 68720001025, 68720001025, 68720001025, 68720001025, 68720001025, 68720001025, 68720001025, 68720001025, 68720001025, 68720001025, 68720001025, 68720001025, 68720001025, 68720001025, 68720001025, 68720001025, 68720001025, 68720001025, 68720001025, 68720001025, 68720001025, 68720001025, 68720001025, 68720001025, 68720001025, 68720001025, 68720001025, 68720001025, 68720001025, 68720001025, 68720001025, 68720001025, 68720001025, 68720001025, 68720001025, 68720001025, 68720001025, 68720001025, 68720001025, 68720001025, 68720001025, 68720001025, 68720001025, 68720001025, 68720001025, 68720001025, 68720001025, 68720001025, 68720001025, 68720001025, 68720001025, 68720001025, 68720001025, 68720001025, 68720001025, 68720001025, 68720001025, 68720001025, 68720001025, 68720001025, 68720001025, 68720001025, 68720001025, 68720001025, 68720001025, 68720001025, 68720001025, 68720001025, 68720001025, 68720001025, 68720001025, 68720001025, 68720001025, 68720001025, 68720001025, 68720001025, 68720001025, 68720001025, 68720001025, 68720001025, 68720001025, 68720001025, 68720001025, 68720001025, 68720001025, 68720001025, 68720001025, 68720001025, 68720001025, 68720001025, 68720001025, 68720001025, 68720001025, 68720001025, 68720001025, 68720001025, 68720001025, 68720001025, 68720001025, 68720001025, 68720001025, 68720001025, 68720001025, 68720001025, 68720001025, 68720001025, 68720001025, 68720001025, 68720001025, 68720001025, 68720001025, 68720001025, 68720001025, 68720001025, 68720001025, 68720001025, 68720001025, 68720001025, 68720001025, 68720001025, 68720001025, 68720001025, 68720001025, 68720001025, 68720001025, 68720001025, 68720001025, 68720001025, 68720001025, 68720001025, 68720001025, 68720001025, 68720001025, 68720001025, 68720001025, 68720001025, 68720001025, 68720001025, 68720001025, 68720001025, 68720001025, 68720001025, 68720001025, 68720001025, 68720001025, 68720001025, 68720001025, 68720001025, 68720001025, 68720001025, 68720001025, 68720001025, 68720001025, 68720001025, 68720001025, 68720001025, 68720001025, 68720001025, 68720001025, 68720001025, 68720001025, 68720001025, 68720001025, 68720001025, 68720001025, 68720001025, 68720001025, 68720001025, 68720001025, 68720001025, 68720001025, 68720001025, 68720001025, 68720001025, 68720001025, 68720001025, 68720001025, 68720001025, 68720001025, 68720001025, 68720001025, 68720001025, 68720001025, 68720001025, 68720001025, 68720001025, 68720001025, 68720001025, 68720001025, 68720001025, 68720001025, 68720001025, 68720001025, 68720001025, 68720001025, 68720001025, 68720001025, 68720001025, 68720001025, 68720001025, 68720001025, 68720001025, 68720001025, 68720001025, 68720001025, 68720001025, 68720001025, 68720001025, 68720001025, 68720001025, 68720001025, 68720001025, 68720001025, 68720001025, 68720001025, 68720001025, 68720001025, 68720001025, 68720001025, 68720001025, 68720001025, 68720001025, 68720001025, 68720001025, 68720001025, 68720001025, 68720001025, 68720001025, 68720001025, 68720001025, 68720001025, 68720001025, 68720001025, 68720001025, 68720001025, 68720001025, 68720001025, 68720001025, 68720001025, 68720001025, 68720001025, 68720001025, 68720001025, 68720001025, 68720001025, 68720001025, 68720001025, 68720001025, 68720001025, 68720001025, 68720001025, 68720001025, 68720001025, 68720001025, 68720001025, 68720001025, 68720001025, 68720001025, 68720001025, 68720001025, 68720001025, 68720001025, 68720001025, 68720001025, 68720001025, 68720001025, 68720001025, 68720001025, 68720001025, 68720001025, 68720001025, 68720001025, 68720001025, 68720001025, 68720001025, 68720001025, 68720001025, 68720001025, 68720001025, 68720001025, 68720001025, 68720001025, 68720001025, 68720001025, 68720001025, 68720001025, 68720001025, 68720001025, 68720001025, 68720001025, 68720001025, 68720001025, 68720001025, 68720001025, 68720001025, 68720001025, 68720001025, 68720001025, 68720001025, 68720001025, 68720001025, 68720001025, 68720001025, 68720001025, 68720001025, 68720001025, 68720001025, 68720001025, 68720001025, 68720001025, 68720001025, 68720001025, 68720001025, 68720001025, 68720001025, 68720001025, 68720001025, 68720001025, 68720001025, 68720001025, 68720001025, 68720001025, 68720001025, 68720001025, 68720001025, 68720001025, 68720001025, 68720001025, 68720001025, 68720001025, 68720001025, 68720001025, 68720001025, 68720001025, 68720001025, 68720001025, 68720001025, 68720001025, 68720001025, 68720001025, 68720001025, 68720001025, 68720001025, 68720001025, 68720001025, 68720001025, 68720001025, 68720001025, 68720001025, 68720001025, 68720001025, 68720001025, 68720001025, 68720001025, 68720001025, 68720001025, 68720001025, 68720001025, 68720001025, 68720001025, 68720001025, 68720001025, 68720001025, 68720001025, 68720001025, 68720001025, 68720001025, 68720001025, 68720001025, 68720001025, 68720001025, 68720001025, 68720001025, 68720001025, 68720001025, 68720001025, 68720001025, 68720001025, 68720001025, 68720001025, 68720001025, 68720001025, 68720001025, 68720001025, 68720001025, 68720001025, 68720001025, 68720001025, 68720001025, 68720001025, 68720001025, 68720001025, 68720001025, 68720001025, 68720001025, 68720001025, 68720001025, 68720001025, 68720001025, 68720001025, 68720001025, 68720001025, 68720001025, 68720001025, 68720001025, 68720001025, 68720001025, 68720001025, 68720001025, 68720001025, 68720001025, 68720001025, 68720001025, 68720001025, 68720001025, 68720001025, 68720001025, 68720001025, 68720001025, 68720001025, 68720001025, 68720001025, 68720001025, 68720001025, 68720001025, 68720001025, 68720001025, 68720001025, 68720001025, 68720001025, 68720001025, 68720001025, 68720001025, 68720001025, 68720001025, 68720001025, 68720001025, 68720001025, 68720001025, 68720001025, 68720001025, 68720001025, 68720001025, 68720001025, 68720001025, 68720001025, 68720001025, 68720001025, 68720001025, 68720001025, 68720001025, 68720001025, 68720001025, 68720001025, 68720001025, 68720001025, 68720001025, 68720001025, 68720001025, 68720001025, 68720001025, 68720001025, 68720001025, 68720001025, 68720001025, 68720001025, 68720001025, 68720001025, 68720001025, 68720001025, 68720001025, 68720001025, 68720001025, 68720001025, 68720001025, 68720001025, 68720001025, 68720001025, 68720001025, 68720001025, 68720001025, 68720001025, 68720001025, 68720001025, 68720001025, 68720001025, 68720001025, 68720001025, 68720001025, 68720001025, 68720001025, 68720001025, 68720001025, 68720001025, 